<unk>	0
<s>	0
</s>	0
en	-0
er	-1
in	-2
▁t	-3
ch	-4
▁a	-5
▁d	-6
▁w	-7
▁s	-8
▁th	-9
nd	-10
ie	-11
es	-12
is	-13
at	-14
on	-15
it	-16
▁m	-17
as	-18
re	-19
an	-20
▁b	-21
▁the	-22
▁h	-23
ich	-24
▁o	-25
▁e	-26
ll	-27
▁u	-28
▁g	-29
ou	-30
or	-31
▁f	-32
ar	-33
te	-34
▁in	-35
▁I	-36
ing	-37
▁n	-38
le	-39
▁S	-40
▁c	-41
▁p	-42
▁die	-43
▁to	-44
▁A	-45
ir	-46
▁v	-47
▁is	-48
▁ein	-49
us	-50
al	-51
▁of	-52
▁and	-53
om	-54
ig	-55
▁l	-56
▁W	-57
ed	-58
▁k	-59
▁be	-60
▁und	-61
un	-62
▁z	-63
ten	-64
ur	-65
el	-66
ter	-67
▁das	-68
ion	-69
▁T	-70
ut	-71
▁that	-72
▁D	-73
▁y	-74
▁M	-75
ro	-76
et	-77
ent	-78
im	-79
▁ha	-80
▁we	-81
ic	-82
ere	-83
ra	-84
▁E	-85
▁B	-86
st	-87
▁you	-88
em	-89
▁der	-90
▁wh	-91
hr	-92
ve	-93
▁zu	-94
▁wir	-95
il	-96
ow	-97
▁G	-98
▁ist	-99
▁it	-100
ach	-101
ein	-102
▁an	-103
icht	-104
am	-105
ot	-106
id	-107
gen	-108
ber	-109
se	-110
ier	-111
ind	-112
ge	-113
lich	-114
sch	-115
ben	-116
▁so	-117
uf	-118
▁re	-119
▁un	-120
▁F	-121
all	-122
ke	-123
▁K	-124
ol	-125
▁on	-126
▁ver	-127
▁ich	-128
▁P	-129
▁U	-130
▁was	-131
▁L	-132
▁es	-133
he	-134
▁se	-135
ct	-136
ay	-137
ung	-138
▁st	-139
▁H	-140
ver	-141
▁er	-142
▁And	-143
▁al	-144
▁"	-145
if	-146
de	-147
▁N	-148
▁den	-149
um	-150
▁this	-151
▁sie	-152
and	-153
▁Sie	-154
den	-155
▁j	-156
ür	-157
ck	-158
ld	-159
uch	-160
▁all	-161
nen	-162
▁nicht	-163
op	-164
sen	-165
be	-166
ation	-167
▁for	-168
▁—	-169
ce	-170
au	-171
aus	-172
▁dass	-173
▁von	-174
ht	-175
▁R	-176
▁eine	-177
▁ab	-178
ann	-179
▁r	-180
▁als	-181
▁auf	-182
▁im	-183
▁V	-184
der	-185
ill	-186
est	-187
▁do	-188
▁me	-189
ag	-190
her	-191
hen	-192
ess	-193
▁ge	-194
ly	-195
▁mit	-196
▁ne	-197
▁are	-198
ith	-199
▁uns	-200
▁sch	-201
ste	-202
pp	-203
▁wie	-204
ally	-205
▁Und	-206
▁J	-207
▁man	-208
▁war	-209
isch	-210
enn	-211
▁with	-212
▁le	-213
▁have	-214
▁(	-215
ul	-216
▁C	-217
oo	-218
▁they	-219
▁So	-220
men	-221
kt	-222
▁he	-223
▁sich	-224
os	-225
out	-226
▁mo	-227
▁as	-228
▁Th	-229
▁Ich	-230
▁can	-231
▁Z	-232
we	-233
▁wor	-234
▁O	-235
ab	-236
ad	-237
ant	-238
▁li	-239
ust	-240
▁We	-241
ers	-242
▁i	-243
▁pro	-244
ib	-245
ne	-246
ort	-247
▁sind	-248
über	-249
▁com	-250
und	-251
ies	-252
▁what	-253
ould	-254
▁1	-255
▁at	-256
▁sp	-257
ön	-258
▁go	-259
▁für	-260
af	-261
▁In	-262
▁St	-263
▁ex	-264
ien	-265
ern	-266
▁fr	-267
▁about	-268
ze	-269
▁dies	-270
▁not	-271
art	-272
▁haben	-273
ist	-274
ese	-275
▁hat	-276
ik	-277
▁aus	-278
iv	-279
▁um	-280
▁The	-281
▁ch	-282
iel	-283
ahr	-284
gh	-285
hl	-286
▁or	-287
oll	-288
ause	-289
ome	-290
▁über	-291
▁my	-292
og	-293
▁kön	-294
▁Le	-295
ight	-296
▁des	-297
▁de	-298
▁Das	-299
▁wer	-300
end	-301
▁dem	-302
▁pe	-303
▁Wir	-304
mer	-305
▁Sch	-306
▁Es	-307
ate	-308
qu	-309
▁mein	-310
ople	-311
▁there	-312
ive	-313
ine	-314
▁sa	-315
ink	-316
igen	-317
ity	-318
▁ma	-319
▁con	-320
▁people	-321
och	-322
▁Er	-323
▁It	-324
th	-325
▁sh	-326
▁one	-327
▁like	-328
ide	-329
▁diese	-330
ff	-331
tw	-332
▁from	-333
elt	-334
▁our	-335
ure	-336
ute	-337
esch	-338
▁tr	-339
▁Be	-340
ass	-341
▁sein	-342
ang	-343
▁ar	-344
▁us	-345
ap	-346
▁te	-347
▁but	-348
▁bec	-349
ensch	-350
▁wenn	-351
now	-352
▁also	-353
ast	-354
▁Die	-355
ted	-356
▁einen	-357
▁da	-358
▁out	-359
zen	-360
00	-361
▁get	-362
ook	-363
▁ih	-364
äch	-365
▁Ge	-366
▁just	-367
▁know	-368
ieren	-369
▁Ar	-370
▁2	-371
ear	-372
▁können	-373
▁oder	-374
▁pl	-375
▁An	-376
▁thing	-377
ungen	-378
▁werden	-379
▁them	-380
▁Pro	-381
ken	-382
▁But	-383
achen	-384
▁vor	-385
▁who	-386
▁Y	-387
per	-388
ild	-389
▁if	-390
▁her	-391
▁these	-392
iert	-393
▁up	-394
▁think	-395
ite	-396
ru	-397
ound	-398
orm	-399
one	-400
ah	-401
▁very	-402
▁ent	-403
▁Ver	-404
ige	-405
▁aber	-406
iz	-407
▁by	-408
our	-409
▁Al	-410
."	-411
▁Mensch	-412
▁auch	-413
▁kann	-414
ain	-415
ick	-416
▁einer	-417
▁when	-418
ät	-419
ack	-420
▁gen	-421
od	-422
▁en	-423
lle	-424
▁going	-425
ial	-426
▁had	-427
▁see	-428
▁Un	-429
▁your	-430
llen	-431
ud	-432
▁some	-433
▁Aber	-434
ame	-435
▁more	-436
▁because	-437
ue	-438
eren	-439
▁nur	-440
▁einem	-441
▁nach	-442
ime	-443
nt	-444
zt	-445
pt	-446
ans	-447
▁dar	-448
änd	-449
▁act	-450
ibt	-451
pl	-452
▁year	-453
age	-454
ard	-455
ft	-456
schaf	-457
olog	-458
▁etw	-459
ob	-460
▁Menschen	-461
ör	-462
▁Re	-463
▁am	-464
reat	-465
▁would	-466
▁ever	-467
▁will	-468
▁wird	-469
▁their	-470
urch	-471
ert	-472
ble	-473
▁were	-474
ischen	-475
ank	-476
ect	-477
to	-478
fen	-479
▁sehr	-480
▁mich	-481
itt	-482
ose	-483
ück	-484
ise	-485
ple	-486
▁how	-487
ond	-488
▁look	-489
ous	-490
are	-491
ug	-492
▁which	-493
ood	-494
ther	-495
▁work	-496
tern	-497
▁hier	-498
ak	-499
▁really	-500
keit	-501
▁Te	-502
chen	-503
▁kein	-504
issen	-505
hing	-506
heit	-507
me	-508
ually	-509
▁wur	-510
▁Ze	-511
hal	-512
▁gibt	-513
▁Jahr	-514
augh	-515
▁way	-516
▁per	-517
▁vie	-518
ven	-519
ong	-520
▁gro	-521
ign	-522
ions	-523
sten	-524
▁fe	-525
▁time	-526
▁gl	-527
▁world	-528
iff	-529
▁qu	-530
aughter	-531
▁has	-532
▁Ih	-533
▁dann	-534
wo	-535
lie	-536
▁ihr	-537
du	-538
▁noch	-539
▁ste	-540
ia	-541
▁etwas	-542
ment	-543
pr	-544
▁fa	-545
ough	-546
ater	-547
▁here	-548
▁other	-549
▁mir	-550
▁–	-551
ub	-552
chn	-553
ore	-554
▁every	-555
▁then	-556
ommen	-557
Laughter	-558
▁This	-559
▁inter	-560
▁Ein	-561
schaft	-562
än	-563
▁could	-564
ip	-565
sel	-566
▁You	-567
▁don	-568
▁pr	-569
▁into	-570
▁Welt	-571
acht	-572
▁mehr	-573
ens	-574
omet	-575
▁Als	-576
▁bet	-577
ppl	-578
▁sehen	-579
▁gr	-580
▁Sp	-581
▁habe	-582
▁say	-583
▁durch	-584
beit	-585
▁zur	-586
alk	-587
auf	-588
▁dieser	-589
▁mus	-590
▁bra	-591
▁actually	-592
▁jed	-593
rie	-594
ult	-595
ische	-596
▁want	-597
▁where	-598
▁Se	-599
▁years	-600
▁did	-601
ren	-602
ner	-603
▁things	-604
▁ag	-605
▁Wh	-606
▁now	-607
▁sag	-608
cht	-609
lichen	-610
▁viel	-611
yste	-612
▁Leben	-613
▁Fra	-614
▁Wenn	-615
ace	-616
▁somet	-617
▁been	-618
Appl	-619
ical	-620
liche	-621
ice	-622
▁sc	-623
üs	-624
▁Now	-625
ac	-626
form	-627
▁find	-628
ring	-629
etzt	-630
▁any	-631
▁alle	-632
▁ro	-633
▁cl	-634
▁bei	-635
▁They	-636
▁unsere	-637
ile	-638
blem	-639
zu	-640
▁diff	-641
ry	-642
▁make	-643
ire	-644
▁no	-645
▁Zeit	-646
▁beg	-647
▁tra	-648
▁need	-649
sp	-650
iver	-651
▁ob	-652
▁po	-653
▁let	-654
▁happ	-655
hn	-656
▁comp	-657
▁wurde	-658
ake	-659
irst	-660
▁zum	-661
ystem	-662
rei	-663
fl	-664
▁Ch	-665
▁bl	-666
▁wür	-667
▁over	-668
▁part	-669
inge	-670
▁unter	-671
ähr	-672
▁said	-673
▁mö	-674
▁right	-675
▁gan	-676
▁sel	-677
ory	-678
ßen	-679
ife	-680
▁lo	-681
ree	-682
▁He	-683
chte	-684
klich	-685
wer	-686
▁something	-687
▁Ihnen	-688
mt	-689
▁ihre	-690
▁zwe	-691
able	-692
ange	-693
che	-694
ungs	-695
ph	-696
▁einf	-697
▁than	-698
als	-699
iter	-700
▁back	-701
▁Gesch	-702
▁wo	-703
ys	-704
▁two	-705
▁meine	-706
assen	-707
ount	-708
illion	-709
gt	-710
▁machen	-711
▁immer	-712
ents	-713
ations	-714
▁Kind	-715
▁those	-716
▁first	-717
▁much	-718
ger	-719
bst	-720
▁3	-721
▁call	-722
fü	-723
▁Ne	-724
▁tun	-725
aten	-726
▁weil	-727
▁got	-728
erson	-729
isten	-730
▁kon	-731
ark	-732
▁bes	-733
▁new	-734
▁fü	-735
chnolog	-736
▁kind	-737
▁bu	-738
000	-739
▁wirklich	-740
ittle	-741
ves	-742
▁woll	-743
fr	-744
▁imp	-745
▁little	-746
iger	-747
▁unser	-748
erst	-749
way	-750
▁Or	-751
own	-752
▁ac	-753
▁spe	-754
▁Gr	-755
▁lot	-756
cent	-757
▁res	-758
▁hatte	-759
ord	-760
▁einfach	-761
▁ze	-762
▁dis	-763
▁ra	-764
▁müs	-765
ale	-766
▁most	-767
▁she	-768
eln	-769
▁pre	-770
rit	-771
gan	-772
ase	-773
hmen	-774
nte	-775
▁Also	-776
▁ph	-777
ely	-778
hlen	-779
▁bis	-780
▁kom	-781
▁even	-782
▁Was	-783
ving	-784
▁real	-785
▁co	-786
leich	-787
▁only	-788
uen	-789
▁That	-790
▁life	-791
uchen	-792
▁keine	-793
▁talk	-794
ance	-795
▁day	-796
▁Man	-797
ody	-798
ats	-799
▁dieses	-800
vel	-801
▁hum	-802
▁dam	-803
ath	-804
▁ad	-805
är	-806
▁kle	-807
▁ges	-808
glich	-809
ated	-810
ied	-811
▁his	-812
▁müssen	-813
▁Leute	-814
bar	-815
mal	-816
▁wissen	-817
▁star	-818
ition	-819
ktion	-820
ght	-821
▁many	-822
▁viele	-823
ons	-824
▁thr	-825
gend	-826
▁20	-827
iß	-828
▁hel	-829
▁lie	-830
gr	-831
inn	-832
erent	-833
▁soll	-834
▁waren	-835
ram	-836
▁hin	-837
xt	-838
other	-839
ish	-840
wn	-841
▁Vor	-842
▁take	-843
igkeit	-844
▁different	-845
fe	-846
ok	-847
ichte	-848
▁bin	-849
▁su	-850
▁diesem	-851
▁ide	-852
▁pass	-853
aut	-854
▁Art	-855
▁19	-856
ges	-857
▁vers	-858
▁sagte	-859
▁bef	-860
▁Dinge	-861
ds	-862
▁groß	-863
▁andere	-864
▁fl	-865
▁Jahren	-866
unden	-867
▁sagen	-868
get	-869
ict	-870
▁does	-871
ors	-872
▁diesen	-873
ty	-874
▁good	-875
▁em	-876
▁around	-877
▁through	-878
▁ind	-879
gl	-880
int	-881
ammen	-882
▁-	-883
act	-884
off	-885
▁What	-886
▁eines	-887
ichtig	-888
▁zwei	-889
▁down	-890
▁Aus	-891
▁There	-892
ars	-893
▁cont	-894
▁5	-895
urn	-896
tel	-897
iss	-898
▁nat	-899
ient	-900
▁anderen	-901
▁sol	-902
ität	-903
▁ger	-904
cess	-905
▁bek	-906
▁wieder	-907
ution	-908
▁gew	-909
▁verb	-910
▁being	-911
▁put	-912
lleicht	-913
ont	-914
ell	-915
▁gu	-916
usammen	-917
▁tell	-918
ahre	-919
▁off	-920
▁Auf	-921
?"	-922
ience	-923
amil	-924
Lachen	-925
ought	-926
▁jetzt	-927
ters	-928
ary	-929
▁comm	-930
ible	-931
▁show	-932
oc	-933
▁würde	-934
▁Wie	-935
▁selbst	-936
oss	-937
arn	-938
▁10	-939
vor	-940
ism	-941
ious	-942
▁alles	-943
igh	-944
▁glau	-945
▁use	-946
ss	-947
▁same	-948
auen	-949
ian	-950
ep	-951
pe	-952
ual	-953
▁inc	-954
▁problem	-955
ächter	-956
ces	-957
igt	-958
vol	-959
ede	-960
elächter	-961
▁ins	-962
tra	-963
▁wen	-964
▁happen	-965
▁Der	-966
Gelächter	-967
iden	-968
ful	-969
▁best	-970
att	-971
omen	-972
▁gut	-973
▁bring	-974
▁damit	-975
▁dr	-976
▁come	-977
▁Dies	-978
▁try	-979
▁Unter	-980
nis	-981
Applause	-982
geb	-983
ower	-984
▁stud	-985
▁fact	-986
▁may	-987
day	-988
▁human	-989
▁gem	-990
ün	-991
▁En	-992
ject	-993
▁Pl	-994
▁geht	-995
▁4	-996
hren	-997
ting	-998
▁fun	-999
▁Jahre	-1000
▁wä	-1001
▁Mit	-1002
▁count	-1003
▁nie	-1004
halten	-1005
▁du	-1006
▁end	-1007
tet	-1008
formation	-1009
uss	-1010
▁doing	-1011
äl	-1012
▁Ind	-1013
▁Ges	-1014
ved	-1015
▁great	-1016
ize	-1017
ost	-1018
▁big	-1019
fter	-1020
▁ask	-1021
▁start	-1022
▁three	-1023
▁zurück	-1024
llt	-1025
▁sur	-1026
▁dec	-1027
▁denn	-1028
▁pol	-1029
▁♫	-1030
old	-1031
▁hal	-1032
▁versch	-1033
▁lang	-1034
▁Me	-1035
ically	-1036
▁muss	-1037
▁exper	-1038
▁sm	-1039
ucht	-1040
▁Um	-1041
ade	-1042
▁If	-1043
ction	-1044
▁system	-1045
▁sim	-1046
▁bit	-1047
▁mach	-1048
▁percent	-1049
▁Her	-1050
io	-1051
▁weiter	-1052
▁gesch	-1053
thing	-1054
öß	-1055
ivers	-1056
▁rel	-1057
self	-1058
ics	-1059
▁zw	-1060
rä	-1061
▁well	-1062
imes	-1063
▁Fl	-1064
nten	-1065
▁schon	-1066
cial	-1067
▁called	-1068
agen	-1069
ahl	-1070
▁Bl	-1071
ork	-1072
üt	-1073
piel	-1074
,"	-1075
▁Arbeit	-1076
teil	-1077
▁bas	-1078
▁learn	-1079
▁child	-1080
▁quest	-1081
▁Amer	-1082
▁heraus	-1083
az	-1084
▁hand	-1085
▁again	-1086
▁produ	-1087
bt	-1088
▁klein	-1089
▁rem	-1090
Applaus	-1091
▁gra	-1092
ating	-1093
red	-1094
ool	-1095
▁made	-1096
▁build	-1097
▁ir	-1098
von	-1099
▁fra	-1100
▁long	-1101
▁ihnen	-1102
ock	-1103
fahr	-1104
esen	-1105
▁pa	-1106
kl	-1107
gel	-1108
▁own	-1109
ull	-1110
ekt	-1111
ates	-1112
ities	-1113
▁ben	-1114
sche	-1115
etz	-1116
its	-1117
▁vielleicht	-1118
bs	-1119
▁For	-1120
▁feel	-1121
▁Kinder	-1122
▁möchte	-1123
ächlich	-1124
▁ganz	-1125
▁zusammen	-1126
▁import	-1127
▁Ide	-1128
sam	-1129
▁Well	-1130
alt	-1131
▁trans	-1132
ler	-1133
▁einz	-1134
▁Teil	-1135
pen	-1136
▁Im	-1137
▁should	-1138
ek	-1139
▁sec	-1140
▁ele	-1141
for	-1142
▁beh	-1143
hne	-1144
▁Land	-1145
eld	-1146
▁why	-1147
uten	-1148
▁Gen	-1149
ichten	-1150
▁technolog	-1151
▁Afr	-1152
▁underst	-1153
▁person	-1154
ierte	-1155
▁mak	-1156
▁rec	-1157
ubl	-1158
▁Tag	-1159
pf	-1160
zent	-1161
zie	-1162
▁didn	-1163
uter	-1164
▁hatten	-1165
oment	-1166
av	-1167
aum	-1168
▁after	-1169
angen	-1170
iten	-1171
▁change	-1172
ational	-1173
▁thought	-1174
ix	-1175
ail	-1176
entlich	-1177
▁Nach	-1178
▁Fre	-1179
▁Zu	-1180
▁davon	-1181
▁dort	-1182
▁turn	-1183
uß	-1184
eine	-1185
▁Mus	-1186
ins	-1187
les	-1188
▁idea	-1189
▁creat	-1190
olle	-1191
▁belie	-1192
zä	-1193
▁car	-1194
▁genau	-1195
hör	-1196
▁heute	-1197
▁today	-1198
▁important	-1199
▁design	-1200
▁gleich	-1201
▁Grund	-1202
atsächlich	-1203
▁entw	-1204
ope	-1205
▁started	-1206
▁'	-1207
▁Wissen	-1208
äd	-1209
▁app	-1210
rechen	-1211
▁Beis	-1212
▁help	-1213
▁Geschichte	-1214
ular	-1215
▁Bild	-1216
▁mean	-1217
▁wel	-1218
▁meiner	-1219
▁letz	-1220
anden	-1221
weise	-1222
halb	-1223
▁Ste	-1224
ane	-1225
chten	-1226
pro	-1227
inden	-1228
gar	-1229
▁ihn	-1230
▁Diese	-1231
▁jem	-1232
ielen	-1233
▁cour	-1234
onom	-1235
ändern	-1236
▁him	-1237
▁Hier	-1238
oren	-1239
▁sond	-1240
▁its	-1241
▁kl	-1242
ings	-1243
▁last	-1244
orn	-1245
hir	-1246
▁still	-1247
ica	-1248
stehen	-1249
▁str	-1250
▁play	-1251
▁exam	-1252
▁never	-1253
▁Kl	-1254
▁might	-1255
atz	-1256
▁before	-1257
nde	-1258
▁understand	-1259
▁ke	-1260
▁könnte	-1261
▁drei	-1262
ists	-1263
body	-1264
▁All	-1265
aw	-1266
ts	-1267
,000	-1268
▁schw	-1269
▁went	-1270
▁wollen	-1271
imm	-1272
▁Thank	-1273
▁better	-1274
br	-1275
▁sondern	-1276
ility	-1277
vent	-1278
▁wurden	-1279
▁med	-1280
asser	-1281
▁einige	-1282
▁able	-1283
▁Nun	-1284
stell	-1285
reich	-1286
atur	-1287
ave	-1288
erg	-1289
▁Ab	-1290
bei	-1291
▁bess	-1292
▁give	-1293
▁found	-1294
anz	-1295
ache	-1296
mlich	-1297
▁darüber	-1298
omp	-1299
▁story	-1300
▁unserer	-1301
ital	-1302
tent	-1303
▁gehen	-1304
▁br	-1305
▁Problem	-1306
erv	-1307
▁paar	-1308
▁eff	-1309
..	-1310
gram	-1311
ather	-1312
▁200	-1313
utzen	-1314
utz	-1315
▁another	-1316
▁nun	-1317
amen	-1318
ennen	-1319
umber	-1320
▁weiß	-1321
arch	-1322
ieden	-1323
▁Ü	-1324
nehmen	-1325
gether	-1326
▁together	-1327
▁besch	-1328
▁point	-1329
ährend	-1330
▁brain	-1331
▁bo	-1332
▁course	-1333
▁kid	-1334
▁power	-1335
äh	-1336
▁pat	-1337
▁Gl	-1338
▁Aut	-1339
allen	-1340
▁Ihre	-1341
▁cons	-1342
ina	-1343
▁eigen	-1344
fol	-1345
▁fin	-1346
ander	-1347
iven	-1348
▁verw	-1349
schein	-1350
alth	-1351
▁commun	-1352
▁gab	-1353
▁leben	-1354
▁wäre	-1355
▁Beispiel	-1356
▁werde	-1357
ogra	-1358
amm	-1359
▁6	-1360
ues	-1361
änder	-1362
yp	-1363
▁bede	-1364
▁imag	-1365
▁sl	-1366
▁came	-1367
uff	-1368
erm	-1369
▁seine	-1370
▁gel	-1371
▁wahr	-1372
▁next	-1373
▁New	-1374
▁ago	-1375
▁school	-1376
co	-1377
▁When	-1378
ident	-1379
▁Reg	-1380
ative	-1381
▁Geb	-1382
▁mon	-1383
▁Fr	-1384
▁mal	-1385
ward	-1386
▁Gehir	-1387
▁irgend	-1388
ri	-1389
ata	-1390
cted	-1391
ov	-1392
▁zie	-1393
▁few	-1394
▁each	-1395
ugen	-1396
ym	-1397
cken	-1398
ited	-1399
ürlich	-1400
▁hät	-1401
▁Mal	-1402
▁water	-1403
▁größ	-1404
▁place	-1405
ingen	-1406
▁Kon	-1407
▁sogar	-1408
▁tatsächlich	-1409
▁Des	-1410
bl	-1411
▁vom	-1412
ized	-1413
▁wichtig	-1414
▁gegen	-1415
▁Kr	-1416
▁neue	-1417
▁denken	-1418
▁ec	-1419
land	-1420
▁Intern	-1421
▁finden	-1422
▁Lebens	-1423
stellen	-1424
ween	-1425
▁sen	-1426
anted	-1427
▁verl	-1428
▁Br	-1429
▁too	-1430
volution	-1431
▁sort	-1432
▁comple	-1433
ideo	-1434
read	-1435
▁dazu	-1436
▁Ent	-1437
▁used	-1438
▁number	-1439
ott	-1440
öglich	-1441
▁Frauen	-1442
atch	-1443
ced	-1444
▁kommen	-1445
▁denen	-1446
ines	-1447
öff	-1448
▁Hand	-1449
ember	-1450
▁gef	-1451
velop	-1452
▁De	-1453
▁high	-1454
▁question	-1455
ets	-1456
▁exp	-1457
▁between	-1458
arm	-1459
▁denke	-1460
▁Million	-1461
ways	-1462
▁Med	-1463
schen	-1464
gs	-1465
ode	-1466
uge	-1467
▁women	-1468
ierung	-1469
...	-1470
▁par	-1471
▁At	-1472
▁Ph	-1473
▁erzä	-1474
▁ohne	-1475
beiten	-1476
zus	-1477
▁geb	-1478
▁entwick	-1479
▁plan	-1480
▁Pr	-1481
▁Ihr	-1482
els	-1483
▁ans	-1484
▁glob	-1485
▁einmal	-1486
▁15	-1487
geben	-1488
▁zwischen	-1489
gef	-1490
aufen	-1491
▁macht	-1492
▁erst	-1493
▁love	-1494
ED	-1495
▁cre	-1496
▁famil	-1497
oth	-1498
cy	-1499
afür	-1500
▁old	-1501
▁technology	-1502
▁min	-1503
▁Wer	-1504
▁100	-1505
ific	-1506
▁cell	-1507
ps	-1508
▁Da	-1509
iness	-1510
▁small	-1511
▁Frage	-1512
▁gerade	-1513
mit	-1514
▁inst	-1515
▁30	-1516
kay	-1517
▁7	-1518
▁care	-1519
kommen	-1520
▁As	-1521
▁Über	-1522
▁weit	-1523
▁example	-1524
▁8	-1525
▁geben	-1526
▁How	-1527
▁bere	-1528
▁live	-1529
▁konnte	-1530
▁9	-1531
▁ihren	-1532
▁develop	-1533
▁wr	-1534
▁expl	-1535
affen	-1536
▁organ	-1537
▁funktion	-1538
hrt	-1539
▁Wasser	-1540
led	-1541
▁Gehirn	-1542
▁looking	-1543
▁nichts	-1544
▁run	-1545
▁interess	-1546
ika	-1547
▁vis	-1548
▁50	-1549
▁data	-1550
gest	-1551
▁würden	-1552
tz	-1553
▁Ex	-1554
▁näch	-1555
zeit	-1556
▁grow	-1557
▁el	-1558
▁Technolog	-1559
uer	-1560
▁gemacht	-1561
▁four	-1562
cause	-1563
dem	-1564
ably	-1565
achte	-1566
▁polit	-1567
▁wanted	-1568
▁done	-1569
▁schne	-1570
ffen	-1571
▁kommt	-1572
ium	-1573
▁doesn	-1574
▁art	-1575
▁ersten	-1576
ikan	-1577
ness	-1578
▁interest	-1579
ationen	-1580
▁zeigen	-1581
▁partic	-1582
▁glaube	-1583
▁bi	-1584
▁form	-1585
alen	-1586
▁inv	-1587
▁erste	-1588
▁Schl	-1589
▁dafür	-1590
▁eng	-1591
▁set	-1592
▁letzten	-1593
gew	-1594
enden	-1595
▁jeder	-1596
ös	-1597
cept	-1598
▁daran	-1599
rat	-1600
ule	-1601
▁verschieden	-1602
selves	-1603
ement	-1604
ross	-1605
▁verstehen	-1606
unkt	-1607
▁mind	-1608
▁stand	-1609
tschaft	-1610
aterial	-1611
ures	-1612
▁reg	-1613
▁meisten	-1614
▁War	-1615
immt	-1616
▁second	-1617
▁Because	-1618
▁light	-1619
under	-1620
rupp	-1621
gie	-1622
oy	-1623
▁chang	-1624
▁sit	-1625
▁Internet	-1626
▁always	-1627
▁passiert	-1628
▁read	-1629
▁poss	-1630
▁gener	-1631
▁sieht	-1632
▁Is	-1633
▁Eine	-1634
aub	-1635
here	-1636
▁besser	-1637
▁children	-1638
▁während	-1639
unde	-1640
▁TED	-1641
ernen	-1642
▁working	-1643
emein	-1644
▁whole	-1645
yn	-1646
anke	-1647
schl	-1648
hip	-1649
ider	-1650
▁fast	-1651
▁US	-1652
oney	-1653
▁tre	-1654
ma	-1655
▁less	-1656
▁reas	-1657
▁away	-1658
▁trying	-1659
▁lar	-1660
▁mag	-1661
▁etwa	-1662
▁dire	-1663
▁My	-1664
▁million	-1665
ält	-1666
▁believe	-1667
iele	-1668
▁health	-1669
▁sub	-1670
▁Daten	-1671
▁Millionen	-1672
▁sk	-1673
▁acc	-1674
fin	-1675
▁meinem	-1676
▁meinen	-1677
▁Q	-1678
tre	-1679
▁norm	-1680
▁dre	-1681
▁Schw	-1682
▁Mon	-1683
▁sollten	-1684
sy	-1685
ogen	-1686
▁country	-1687
▁under	-1688
atter	-1689
ives	-1690
▁phys	-1691
▁schl	-1692
▁dra	-1693
aking	-1694
▁Univers	-1695
essen	-1696
▁begin	-1697
▁warum	-1698
▁Person	-1699
▁mensch	-1700
▁Geld	-1701
ift	-1702
▁econom	-1703
▁sollte	-1704
weg	-1705
▁prob	-1706
gehen	-1707
▁bus	-1708
esehen	-1709
▁könnten	-1710
▁Idee	-1711
▁frien	-1712
▁lassen	-1713
▁Ä	-1714
▁Comp	-1715
▁met	-1716
licher	-1717
▁aut	-1718
▁Tr	-1719
äng	-1720
▁cap	-1721
▁wollte	-1722
agt	-1723
amer	-1724
ivid	-1725
jekt	-1726
ude	-1727
ief	-1728
alls	-1729
ural	-1730
ands	-1731
press	-1732
▁cor	-1733
▁ihrer	-1734
ußer	-1735
iar	-1736
cher	-1737
▁anim	-1738
▁hard	-1739
▁book	-1740
err	-1741
ischer	-1742
▁schnell	-1743
ister	-1744
örper	-1745
▁Prozent	-1746
kte	-1747
tell	-1748
ilm	-1749
▁sicher	-1750
▁Weg	-1751
ci	-1752
vers	-1753
app	-1754
▁Raum	-1755
anken	-1756
▁Am	-1757
▁means	-1758
▁fre	-1759
▁home	-1760
▁using	-1761
▁resp	-1762
kun	-1763
ierten	-1764
▁cou	-1765
utter	-1766
akt	-1767
fühl	-1768
▁kids	-1769
▁supp	-1770
▁maybe	-1771
▁thinking	-1772
lung	-1773
▁pict	-1774
▁große	-1775
los	-1776
row	-1777
asch	-1778
▁such	-1779
▁jemand	-1780
isen	-1781
▁cle	-1782
▁natürlich	-1783
schied	-1784
▁publ	-1785
▁Famil	-1786
▁create	-1787
arth	-1788
▁information	-1789
▁[	-1790
vern	-1791
▁ging	-1792
adt	-1793
▁compan	-1794
zeug	-1795
legen	-1796
▁sprechen	-1797
dern	-1798
▁fut	-1799
▁five	-1800
▁took	-1801
ilt	-1802
▁spec	-1803
hin	-1804
utet	-1805
öglichkeit	-1806
▁kam	-1807
▁dabei	-1808
▁Fe	-1809
▁money	-1810
ald	-1811
ories	-1812
▁space	-1813
ett	-1814
▁arbeiten	-1815
ruck	-1816
▁hör	-1817
▁everything	-1818
▁abs	-1819
wir	-1820
uft	-1821
▁One	-1822
aben	-1823
ries	-1824
".	-1825
ollar	-1826
▁sing	-1827
▁ass	-1828
ruct	-1829
▁ander	-1830
▁ganze	-1831
annt	-1832
kunft	-1833
▁project	-1834
▁unseren	-1835
▁left	-1836
▁mod	-1837
äter	-1838
▁become	-1839
▁walk	-1840
▁sagt	-1841
▁York	-1842
▁ziemlich	-1843
onder	-1844
▁open	-1845
gesch	-1846
▁nam	-1847
ständ	-1848
▁Ende	-1849
▁Mein	-1850
cer	-1851
str	-1852
urs	-1853
▁Min	-1854
▁moment	-1855
ünd	-1856
▁future	-1857
ird	-1858
▁weniger	-1859
▁ja	-1860
▁bekommen	-1861
▁process	-1862
arly	-1863
sehen	-1864
▁darauf	-1865
▁Wissenschaft	-1866
▁Verb	-1867
ilen	-1868
raft	-1869
▁enough	-1870
▁Dank	-1871
▁coll	-1872
urz	-1873
▁eig	-1874
reiben	-1875
rop	-1876
ouse	-1877
net	-1878
▁teach	-1879
▁getting	-1880
▁Kom	-1881
▁energ	-1882
▁Dann	-1883
sych	-1884
▁Ener	-1885
arbeit	-1886
ktur	-1887
▁hist	-1888
ric	-1889
▁Mar	-1890
▁social	-1891
▁Pol	-1892
▁Mann	-1893
▁times	-1894
icher	-1895
▁food	-1896
▁These	-1897
▁Ger	-1898
esell	-1899
scheinlich	-1900
ustr	-1901
▁head	-1902
▁dachte	-1903
up	-1904
▁Kre	-1905
▁doll	-1906
uck	-1907
▁doch	-1908
▁sense	-1909
▁stop	-1910
▁half	-1911
.000	-1912
ican	-1913
▁Stud	-1914
▁comes	-1915
ließ	-1916
port	-1917
▁sign	-1918
nov	-1919
▁bedeutet	-1920
▁erw	-1921
iere	-1922
▁Eur	-1923
▁She	-1924
▁mark	-1925
äus	-1926
ments	-1927
▁govern	-1928
cle	-1929
▁bre	-1930
ennt	-1931
▁grou	-1932
▁month	-1933
abor	-1934
hol	-1935
▁Wo	-1936
▁nehmen	-1937
▁China	-1938
▁El	-1939
▁quite	-1940
orgen	-1941
ringen	-1942
▁brauchen	-1943
aupt	-1944
hlt	-1945
▁add	-1946
▁pos	-1947
vir	-1948
▁cr	-1949
ices	-1950
usst	-1951
fte	-1952
▁probably	-1953
▁prof	-1954
▁Entw	-1955
▁Information	-1956
▁Men	-1957
▁interesting	-1958
esten	-1959
ismus	-1960
ng	-1961
hle	-1962
▁Denn	-1963
line	-1964
▁kleinen	-1965
ipp	-1966
fort	-1967
▁energy	-1968
aces	-1969
ulation	-1970
reen	-1971
▁Inter	-1972
▁Vers	-1973
▁happened	-1974
par	-1975
▁talking	-1976
▁vier	-1977
ograph	-1978
nah	-1979
▁pop	-1980
▁body	-1981
eder	-1982
▁seem	-1983
isk	-1984
▁beste	-1985
",	-1986
▁job	-1987
Ich	-1988
cke	-1989
▁dist	-1990
mp	-1991
oot	-1992
▁lives	-1993
▁fas	-1994
▁Ö	-1995
äft	-1996
▁Gro	-1997
▁Män	-1998
▁room	-1999
iet	-2000
▁without	-2001
▁making	-2002
▁seit	-2003
▁Tra	-2004
▁far	-2005
▁told	-2006
ax	-2007
tty	-2008
ately	-2009
▁Wor	-2010
▁conne	-2011
▁Möglichkeit	-2012
uring	-2013
hand	-2014
very	-2015
ionen	-2016
▁Mill	-2017
▁Ob	-2018
▁ser	-2019
iges	-2020
▁jeden	-2021
▁Stra	-2022
duc	-2023
esearch	-2024
▁Proble	-2025
halt	-2026
ron	-2027
▁cur	-2028
mun	-2029
▁bringen	-2030
▁Technologie	-2031
äs	-2032
amp	-2033
irl	-2034
▁voll	-2035
▁möglich	-2036
▁pra	-2037
achsen	-2038
zial	-2039
▁global	-2040
▁beaut	-2041
▁ber	-2042
▁sound	-2043
▁heiß	-2044
▁Sache	-2045
▁week	-2046
▁pie	-2047
▁Pat	-2048
▁stuff	-2049
▁ihm	-2050
aden	-2051
esent	-2052
ether	-2053
▁else	-2054
ying	-2055
ever	-2056
▁Ged	-2057
▁Zukunft	-2058
▁hund	-2059
▁pretty	-2060
▁Energie	-2061
▁Dollar	-2062
▁opp	-2063
etzen	-2064
▁Chr	-2065
▁gar	-2066
▁ret	-2067
▁anything	-2068
ret	-2069
iment	-2070
ole	-2071
▁fol	-2072
▁men	-2073
▁bewe	-2074
▁across	-2075
opf	-2076
▁kleine	-2077
▁großen	-2078
▁je	-2079
▁welche	-2080
aun	-2081
▁contro	-2082
▁Let	-2083
▁allow	-2084
▁wenig	-2085
▁Frau	-2086
▁gesehen	-2087
▁building	-2088
▁int	-2089
▁elect	-2090
gle	-2091
▁eas	-2092
▁Computer	-2093
▁coming	-2094
▁bad	-2095
leben	-2096
man	-2097
▁schle	-2098
▁family	-2099
▁reason	-2100
viron	-2101
▁eigentlich	-2102
▁Stadt	-2103
▁keep	-2104
▁wonder	-2105
ional	-2106
▁Here	-2107
▁hätte	-2108
ior	-2109
most	-2110
aps	-2111
▁ungl	-2112
▁12	-2113
▁18	-2114
▁Grupp	-2115
▁Körper	-2116
richt	-2117
ged	-2118
▁40	-2119
▁asked	-2120
▁experience	-2121
▁Design	-2122
quen	-2123
ernt	-2124
▁oft	-2125
ker	-2126
▁später	-2127
▁business	-2128
▁Gemein	-2129
▁side	-2130
ders	-2131
▁Gew	-2132
▁Woch	-2133
▁keinen	-2134
iving	-2135
▁hour	-2136
undheit	-2137
▁scient	-2138
fer	-2139
▁Den	-2140
einander	-2141
NA	-2142
ality	-2143
itive	-2144
▁makes	-2145
▁ganzen	-2146
▁cult	-2147
▁ways	-2148
▁countries	-2149
▁OK	-2150
▁phot	-2151
arten	-2152
▁gest	-2153
▁außer	-2154
gal	-2155
ince	-2156
▁simple	-2157
▁hope	-2158
ende	-2159
▁dollars	-2160
vie	-2161
▁environ	-2162
▁val	-2163
ertain	-2164
▁ä	-2165
▁Lie	-2166
▁beim	-2167
scheid	-2168
▁saw	-2169
▁Bü	-2170
▁later	-2171
▁living	-2172
▁Ort	-2173
▁Seite	-2174
nf	-2175
▁having	-2176
chite	-2177
▁soc	-2178
▁science	-2179
schaften	-2180
▁top	-2181
▁Ber	-2182
▁Str	-2183
aft	-2184
ape	-2185
▁Weise	-2186
▁bro	-2187
▁glauben	-2188
▁research	-2189
▁On	-2190
ared	-2191
▁seen	-2192
achten	-2193
▁remember	-2194
air	-2195
▁gesagt	-2196
oman	-2197
▁ey	-2198
▁fig	-2199
iety	-2200
▁No	-2201
▁says	-2202
▁rest	-2203
▁Okay	-2204
▁days	-2205
▁program	-2206
▁char	-2207
▁konnten	-2208
▁Ele	-2209
▁Antw	-2210
▁Groß	-2211
ily	-2212
▁hoch	-2213
▁pers	-2214
ene	-2215
▁eigenen	-2216
▁air	-2217
▁Fall	-2218
▁fest	-2219
▁Erde	-2220
▁col	-2221
stoff	-2222
▁Buch	-2223
rib	-2224
work	-2225
where	-2226
▁Warum	-2227
▁Uns	-2228
▁single	-2229
stellung	-2230
ament	-2231
▁absol	-2232
ume	-2233
ants	-2234
▁Africa	-2235
▁vielen	-2236
▁cent	-2237
rum	-2238
ization	-2239
▁niem	-2240
ckt	-2241
▁Haus	-2242
▁while	-2243
▁answer	-2244
▁particular	-2245
▁Natur	-2246
▁goes	-2247
▁lernen	-2248
▁happens	-2249
utes	-2250
▁Pe	-2251
▁Mutter	-2252
▁individ	-2253
ches	-2254
▁Spiel	-2255
gte	-2256
▁Augen	-2257
zeich	-2258
▁lea	-2259
▁move	-2260
ike	-2261
▁Sh	-2262
▁öff	-2263
▁Wahr	-2264
▁inside	-2265
öl	-2266
erence	-2267
▁equ	-2268
▁planet	-2269
▁picture	-2270
▁versuchen	-2271
ision	-2272
▁gehör	-2273
▁System	-2274
akes	-2275
▁Sel	-2276
onnen	-2277
ähigkeit	-2278
▁complete	-2279
▁Menge	-2280
▁offen	-2281
▁Vielen	-2282
▁ble	-2283
rieben	-2284
▁effect	-2285
▁stellen	-2286
til	-2287
▁educ	-2288
▁nutzen	-2289
▁Earth	-2290
▁unglaub	-2291
ided	-2292
▁Danke	-2293
▁helfen	-2294
▁young	-2295
eth	-2296
▁CA	-2297
oice	-2298
▁indem	-2299
▁Entwick	-2300
▁fünf	-2301
ator	-2302
stand	-2303
esellschaft	-2304
▁fal	-2305
▁land	-2306
▁pain	-2307
▁thous	-2308
▁public	-2309
mittel	-2310
▁almost	-2311
nung	-2312
ritt	-2313
▁„	-2314
▁bew	-2315
▁amaz	-2316
▁Gesundheit	-2317
arte	-2318
ändert	-2319
emat	-2320
▁problems	-2321
▁Zwe	-2322
▁case	-2323
▁Gra	-2324
ots	-2325
▁Licht	-2326
▁Moment	-2327
▁Dar	-2328
▁Probleme	-2329
▁sure	-2330
▁funktioniert	-2331
▁girl	-2332
▁schaffen	-2333
ilder	-2334
folg	-2335
unter	-2336
ready	-2337
▁stre	-2338
▁Engl	-2339
▁Do	-2340
▁jedes	-2341
▁USA	-2342
▁computer	-2343
▁nä	-2344
▁treat	-2345
▁besond	-2346
▁dig	-2347
▁six	-2348
▁often	-2349
üh	-2350
▁25	-2351
▁che	-2352
▁komple	-2353
tellt	-2354
so	-2355
▁ev	-2356
▁sah	-2357
▁vir	-2358
asse	-2359
racht	-2360
▁extre	-2361
▁normal	-2362
▁saying	-2363
▁exc	-2364
▁dise	-2365
▁gute	-2366
▁yet	-2367
▁city	-2368
▁Jo	-2369
chmal	-2370
▁myself	-2371
▁disco	-2372
reichen	-2373
dle	-2374
▁mil	-2375
▁ref	-2376
ash	-2377
zahl	-2378
▁rob	-2379
▁suc	-2380
▁began	-2381
▁someone	-2382
▁once	-2383
▁level	-2384
▁irgendw	-2385
▁loc	-2386
▁Organ	-2387
▁matter	-2388
▁hear	-2389
▁heißt	-2390
stead	-2391
▁wrong	-2392
ankheit	-2393
öt	-2394
▁bed	-2395
ruktur	-2396
▁watch	-2397
▁community	-2398
iti	-2399
unk	-2400
▁prote	-2401
▁environment	-2402
anc	-2403
rück	-2404
▁cells	-2405
▁anders	-2406
▁wus	-2407
fahren	-2408
iverse	-2409
abe	-2410
ote	-2411
▁certain	-2412
tem	-2413
▁seiner	-2414
▁Milliar	-2415
ktiv	-2416
▁Ang	-2417
▁langu	-2418
▁unserem	-2419
▁already	-2420
iker	-2421
athemat	-2422
▁Why	-2423
▁possible	-2424
▁Spra	-2425
▁contin	-2426
▁betra	-2427
▁Produ	-2428
▁looked	-2429
▁challen	-2430
▁nothing	-2431
▁fund	-2432
▁whether	-2433
zuf	-2434
▁biolog	-2435
umen	-2436
ption	-2437
ogn	-2438
hrer	-2439
osed	-2440
▁Jetzt	-2441
side	-2442
▁Not	-2443
▁kne	-2444
sicht	-2445
▁invest	-2446
inen	-2447
▁mar	-2448
▁allen	-2449
ären	-2450
▁exact	-2451
itz	-2452
▁both	-2453
▁aller	-2454
imate	-2455
▁begann	-2456
▁amazing	-2457
▁genug	-2458
zieh	-2459
isches	-2460
ury	-2461
▁aff	-2462
ahlen	-2463
▁exist	-2464
▁neuen	-2465
▁Form	-2466
▁self	-2467
chs	-2468
▁nächsten	-2469
▁net	-2470
oden	-2471
▁kennen	-2472
let	-2473
ases	-2474
kennen	-2475
uche	-2476
fra	-2477
ield	-2478
▁erinn	-2479
▁wa	-2480
▁cancer	-2481
gleich	-2482
ädchen	-2483
▁tot	-2484
auer	-2485
▁DNA	-2486
▁Kont	-2487
inz	-2488
heim	-2489
▁verd	-2490
▁verk	-2491
▁incred	-2492
▁beautif	-2493
denken	-2494
▁guy	-2495
glichen	-2496
▁words	-2497
▁Rob	-2498
dition	-2499
▁class	-2500
▁erzählen	-2501
forder	-2502
▁ideas	-2503
▁billion	-2504
▁history	-2505
ünst	-2506
▁line	-2507
▁gemein	-2508
▁Tod	-2509
▁heart	-2510
less	-2511
ones	-2512
▁lange	-2513
▁alt	-2514
uation	-2515
ages	-2516
ument	-2517
mut	-2518
▁erf	-2519
lichkeit	-2520
▁kill	-2521
gefähr	-2522
▁entire	-2523
ush	-2524
ösen	-2525
▁cost	-2526
▁Gegen	-2527
▁wahrscheinlich	-2528
▁face	-2529
▁within	-2530
▁train	-2531
aneten	-2532
▁iss	-2533
▁product	-2534
▁zeigt	-2535
▁Forsch	-2536
▁night	-2537
▁imagine	-2538
fect	-2539
▁looks	-2540
▁music	-2541
▁richtig	-2542
äre	-2543
ster	-2544
osten	-2545
▁true	-2546
▁bevor	-2547
icro	-2548
▁nah	-2549
▁insp	-2550
▁Schul	-2551
▁Selbst	-2552
▁basically	-2553
▁To	-2554
inter	-2555
▁jede	-2556
▁term	-2557
uchte	-2558
The	-2559
iol	-2560
ress	-2561
▁weg	-2562
▁months	-2563
▁age	-2564
▁heard	-2565
▁emot	-2566
iag	-2567
▁klar	-2568
▁recht	-2569
unst	-2570
▁test	-2571
gangen	-2572
▁Ja	-2573
▁psych	-2574
▁Mädchen	-2575
▁Für	-2576
▁mother	-2577
lt	-2578
▁herum	-2579
▁full	-2580
▁Erfahr	-2581
▁Bed	-2582
▁mid	-2583
erein	-2584
▁liegt	-2585
▁order	-2586
▁sex	-2587
▁wasn	-2588
ination	-2589
aby	-2590
kr	-2591
hat	-2592
▁Fot	-2593
▁Geschichten	-2594
welt	-2595
iting	-2596
▁intern	-2597
ollow	-2598
▁schwer	-2599
▁control	-2600
▁ident	-2601
▁friends	-2602
rug	-2603
▁bauen	-2604
▁extra	-2605
äche	-2606
innen	-2607
ultur	-2608
▁Nicht	-2609
▁figure	-2610
▁stories	-2611
▁Planeten	-2612
▁ur	-2613
▁beautiful	-2614
▁cond	-2615
liches	-2616
que	-2617
▁Vie	-2618
▁dev	-2619
wend	-2620
▁species	-2621
▁result	-2622
llig	-2623
▁defin	-2624
▁hö	-2625
▁learned	-2626
cl	-2627
▁couple	-2628
mö	-2629
ians	-2630
▁mot	-2631
ereich	-2632
▁rad	-2633
▁until	-2634
nitt	-2635
▁incre	-2636
▁seinen	-2637
▁Informationen	-2638
▁ü	-2639
▁ill	-2640
▁wicht	-2641
▁United	-2642
ienten	-2643
▁group	-2644
beite	-2645
ivity	-2646
ße	-2647
▁Meine	-2648
▁pay	-2649
▁musste	-2650
▁sei	-2651
▁Angst	-2652
▁Exper	-2653
▁Schule	-2654
▁verändern	-2655
▁Sta	-2656
▁Kunst	-2657
▁built	-2658
▁Fragen	-2659
▁Projekt	-2660
▁ta	-2661
▁government	-2662
▁Ideen	-2663
▁Fähigkeit	-2664
antw	-2665
▁mass	-2666
▁Familie	-2667
fä	-2668
▁ant	-2669
▁knew	-2670
▁Leuten	-2671
vious	-2672
voll	-2673
nisse	-2674
oral	-2675
▁eing	-2676
spr	-2677
stit	-2678
▁Männer	-2679
▁places	-2680
izin	-2681
undert	-2682
▁front	-2683
outh	-2684
▁stehen	-2685
▁ungefähr	-2686
▁Dem	-2687
▁hoff	-2688
▁kurz	-2689
▁Unternehmen	-2690
chan	-2691
▁works	-2692
ired	-2693
immen	-2694
▁Ma	-2695
ielt	-2696
▁decided	-2697
▁woman	-2698
▁follow	-2699
▁sw	-2700
▁terr	-2701
zept	-2702
▁sagten	-2703
ging	-2704
une	-2705
omes	-2706
▁must	-2707
▁study	-2708
▁♪	-2709
▁dest	-2710
▁neur	-2711
aper	-2712
▁201	-2713
ton	-2714
zess	-2715
▁Par	-2716
▁erh	-2717
▁Kopf	-2718
▁spend	-2719
▁though	-2720
▁schwier	-2721
▁60	-2722
▁Arten	-2723
utzt	-2724
▁Antwort	-2725
▁Krie	-2726
▁erkl	-2727
▁hinter	-2728
▁ourselves	-2729
med	-2730
satz	-2731
▁ihrem	-2732
▁überall	-2733
▁typ	-2734
ilfe	-2735
ested	-2736
cc	-2737
bo	-2738
▁att	-2739
▁Du	-2740
▁isn	-2741
▁universe	-2742
wohl	-2743
▁piece	-2744
▁fragen	-2745
fang	-2746
▁word	-2747
ritten	-2748
▁colle	-2749
▁America	-2750
ums	-2751
rieb	-2752
▁miss	-2753
▁material	-2754
▁Krankheit	-2755
lo	-2756
▁law	-2757
▁Punkt	-2758
▁nennen	-2759
▁discover	-2760
▁language	-2761
▁Entscheid	-2762
reif	-2763
▁Bet	-2764
▁gehört	-2765
ateg	-2766
▁darum	-2767
▁exactly	-2768
▁erkennen	-2769
▁11	-2770
▁dich	-2771
▁engine	-2772
ußen	-2773
▁link	-2774
▁nature	-2775
▁Lös	-2776
▁Musik	-2777
▁Bes	-2778
▁Can	-2779
▁ment	-2780
▁innov	-2781
▁became	-2782
▁Wirtschaft	-2783
ctor	-2784
▁los	-2785
▁tro	-2786
▁erl	-2787
igung	-2788
inner	-2789
eah	-2790
▁Eltern	-2791
▁conf	-2792
▁appro	-2793
ibly	-2794
▁object	-2795
▁schein	-2796
▁bereits	-2797
▁adv	-2798
▁quick	-2799
▁Gesellschaft	-2800
ieht	-2801
anzen	-2802
icken	-2803
▁completely	-2804
kten	-2805
▁tool	-2806
▁animals	-2807
▁Milliarden	-2808
▁past	-2809
▁relations	-2810
aur	-2811
▁share	-2812
▁success	-2813
▁Ha	-2814
neh	-2815
▁everybody	-2816
ides	-2817
▁mess	-2818
alität	-2819
▁inner	-2820
▁bisschen	-2821
asst	-2822
acter	-2823
▁entde	-2824
▁Fol	-2825
ftw	-2826
icult	-2827
▁taking	-2828
▁Spe	-2829
ively	-2830
ortun	-2831
▁arbeite	-2832
▁questions	-2833
▁Dieses	-2834
▁anderes	-2835
bed	-2836
▁company	-2837
▁großart	-2838
▁besonders	-2839
▁against	-2840
▁Vielleicht	-2841
hy	-2842
plic	-2843
▁hours	-2844
imens	-2845
▁oce	-2846
enter	-2847
▁Doch	-2848
▁prov	-2849
▁model	-2850
▁struct	-2851
▁reden	-2852
ivil	-2853
uchten	-2854
▁Every	-2855
▁halten	-2856
alten	-2857
▁chem	-2858
▁video	-2859
äuf	-2860
▁80	-2861
bra	-2862
stra	-2863
▁large	-2864
▁since	-2865
▁gets	-2866
▁view	-2867
▁Glück	-2868
ability	-2869
ams	-2870
▁Netz	-2871
▁risk	-2872
Be	-2873
▁States	-2874
▁machte	-2875
▁Zusammen	-2876
▁themselves	-2877
ütz	-2878
▁Gener	-2879
▁Jahrh	-2880
▁house	-2881
▁wunder	-2882
▁entf	-2883
▁society	-2884
▁eben	-2885
▁itself	-2886
▁sometimes	-2887
▁Goo	-2888
▁mem	-2889
bare	-2890
▁kinds	-2891
ocus	-2892
ächt	-2893
▁199	-2894
▁son	-2895
ienen	-2896
por	-2897
▁cir	-2898
▁cra	-2899
▁repr	-2900
▁erreichen	-2901
▁happening	-2902
iste	-2903
▁meet	-2904
▁behav	-2905
▁education	-2906
▁Minuten	-2907
ahn	-2908
▁del	-2909
▁priv	-2910
▁relig	-2911
▁deal	-2912
▁hätten	-2913
ey	-2914
anger	-2915
▁deep	-2916
▁name	-2917
▁somebody	-2918
weit	-2919
indung	-2920
liegen	-2921
▁Ur	-2922
ering	-2923
▁Gebä	-2924
▁Wort	-2925
▁Durch	-2926
ager	-2927
▁Mars	-2928
richten	-2929
face	-2930
▁ones	-2931
▁minutes	-2932
▁huge	-2933
▁namens	-2934
annte	-2935
▁verschiedene	-2936
unge	-2937
▁anf	-2938
ients	-2939
▁av	-2940
▁sow	-2941
▁turns	-2942
▁complex	-2943
▁along	-2944
werk	-2945
igten	-2946
ished	-2947
▁stat	-2948
▁Gruppe	-2949
▁dir	-2950
▁wohl	-2951
itting	-2952
▁techn	-2953
▁created	-2954
osp	-2955
bild	-2956
▁Film	-2957
▁couldn	-2958
▁’	-2959
▁liter	-2960
▁Gefühl	-2961
inning	-2962
▁statt	-2963
▁others	-2964
▁difficult	-2965
▁entwickelt	-2966
▁lik	-2967
▁Mode	-2968
▁hören	-2969
▁steht	-2970
▁disease	-2971
wards	-2972
▁cool	-2973
haps	-2974
▁focus	-2975
▁Bei	-2976
▁Qu	-2977
▁ähn	-2978
▁instead	-2979
▁worked	-2980
▁opportun	-2981
▁aw	-2982
▁Oder	-2983
▁black	-2984
ommt	-2985
immer	-2986
▁India	-2987
▁speak	-2988
▁market	-2989
onne	-2990
ature	-2991
▁Gott	-2992
▁free	-2993
▁wind	-2994
▁jedem	-2995
▁rather	-2996
▁students	-2997
▁euch	-2998
▁darin	-2999
▁schön	-3000
grund	-3001
▁seinem	-3002
ließlich	-3003
▁ho	-3004
▁Auto	-3005
ral	-3006
▁Fü	-3007
▁Sü	-3008
▁beein	-3009
▁everyone	-3010
fall	-3011
hlte	-3012
pect	-3013
▁sym	-3014
ützen	-3015
▁learning	-3016
▁relationship	-3017
▁Em	-3018
gung	-3019
tend	-3020
▁Them	-3021
ined	-3022
▁Bilder	-3023
▁dep	-3024
▁sens	-3025
▁won	-3026
ologie	-3027
▁Afrika	-3028
▁spielen	-3029
hler	-3030
▁extrem	-3031
▁Patienten	-3032
▁var	-3033
änger	-3034
▁lead	-3035
▁news	-3036
Mus	-3037
▁opt	-3038
ask	-3039
osph	-3040
▁red	-3041
▁ändern	-3042
of	-3043
▁Macht	-3044
telligen	-3045
▁Some	-3046
▁eins	-3047
▁least	-3048
▁Kultur	-3049
ump	-3050
▁gerne	-3051
▁braucht	-3052
▁Bezieh	-3053
akter	-3054
▁Verhalten	-3055
▁Fir	-3056
▁mov	-3057
haupt	-3058
ftware	-3059
utions	-3060
▁Google	-3061
▁Far	-3062
ource	-3063
▁thousands	-3064
istan	-3065
▁Herz	-3066
zug	-3067
▁Then	-3068
▁Beweg	-3069
▁Krebs	-3070
▁Stunden	-3071
andel	-3072
▁Ergeb	-3073
▁manchmal	-3074
ither	-3075
▁pred	-3076
▁early	-3077
▁listen	-3078
▁Kön	-3079
▁bott	-3080
sh	-3081
reit	-3082
ätz	-3083
▁meas	-3084
reis	-3085
▁genet	-3086
▁collect	-3087
▁anal	-3088
▁gesam	-3089
ef	-3090
And	-3091
▁Freund	-3092
▁benutzen	-3093
▁Sc	-3094
view	-3095
onen	-3096
ples	-3097
▁ster	-3098
▁welt	-3099
▁richt	-3100
▁American	-3101
uden	-3102
▁God	-3103
inal	-3104
▁mult	-3105
rif	-3106
▁Richt	-3107
ney	-3108
▁Indien	-3109
iken	-3110
istic	-3111
▁na	-3112
▁non	-3113
öhn	-3114
igte	-3115
▁oben	-3116
▁outside	-3117
▁Kn	-3118
roll	-3119
▁arm	-3120
▁aud	-3121
▁ange	-3122
▁gave	-3123
▁vorstellen	-3124
ried	-3125
ummer	-3126
▁micro	-3127
▁behind	-3128
▁fly	-3129
▁disc	-3130
▁oper	-3131
▁poor	-3132
▁sechs	-3133
▁tradition	-3134
amera	-3135
icherheit	-3136
esse	-3137
cing	-3138
▁ries	-3139
illions	-3140
met	-3141
zuste	-3142
anten	-3143
▁recent	-3144
oter	-3145
▁wollten	-3146
ames	-3147
iben	-3148
gramm	-3149
▁amount	-3150
▁erhalten	-3151
▁Ir	-3152
▁jour	-3153
itions	-3154
▁field	-3155
schnitt	-3156
▁Kor	-3157
▁besten	-3158
sent	-3159
▁neu	-3160
▁game	-3161
▁death	-3162
▁beiden	-3163
▁changed	-3164
▁einigen	-3165
▁Ko	-3166
▁third	-3167
cul	-3168
▁glück	-3169
punkt	-3170
▁network	-3171
rad	-3172
aster	-3173
▁invol	-3174
▁Heraus	-3175
▁stell	-3176
ikro	-3177
▁Städ	-3178
▁Luft	-3179
▁pick	-3180
▁14	-3181
▁Weil	-3182
▁Vater	-3183
▁einge	-3184
▁impro	-3185
erk	-3186
▁Ad	-3187
▁Lin	-3188
▁erk	-3189
gress	-3190
gestellt	-3191
▁Jahrhundert	-3192
bes	-3193
▁Bi	-3194
endet	-3195
▁redu	-3196
▁fand	-3197
▁state	-3198
▁systems	-3199
▁verschiedenen	-3200
ence	-3201
▁Hause	-3202
▁Ziel	-3203
▁incl	-3204
▁happy	-3205
▁super	-3206
ising	-3207
ölker	-3208
▁middle	-3209
▁Kindern	-3210
▁entwickeln	-3211
50	-3212
oms	-3213
ekte	-3214
äten	-3215
▁Masch	-3216
hnt	-3217
▁Char	-3218
sw	-3219
▁Techn	-3220
▁einzel	-3221
apt	-3222
inger	-3223
▁führen	-3224
▁taken	-3225
▁natural	-3226
ling	-3227
▁felt	-3228
▁guys	-3229
ning	-3230
orden	-3231
▁inte	-3232
▁Europe	-3233
rew	-3234
▁16	-3235
gang	-3236
ully	-3237
▁cut	-3238
▁bemer	-3239
▁Sprache	-3240
▁needs	-3241
ype	-3242
ison	-3243
indet	-3244
▁Gleich	-3245
▁Regierung	-3246
▁irgendwie	-3247
▁fant	-3248
▁lots	-3249
▁Veränder	-3250
▁yourself	-3251
uz	-3252
haus	-3253
▁fear	-3254
▁given	-3255
▁culture	-3256
ased	-3257
▁cann	-3258
aktion	-3259
▁wegen	-3260
St	-3261
bte	-3262
ply	-3263
▁arg	-3264
▁Aufg	-3265
▁Rück	-3266
ante	-3267
apan	-3268
▁frü	-3269
uh	-3270
ards	-3271
▁Bro	-3272
▁easy	-3273
▁team	-3274
zeugen	-3275
▁ang	-3276
▁hol	-3277
▁sug	-3278
▁machine	-3279
▁verändert	-3280
ässt	-3281
ublik	-3282
▁Sinn	-3283
▁takes	-3284
▁bestimm	-3285
▁einzige	-3286
uld	-3287
führt	-3288
▁online	-3289
ester	-3290
▁sage	-3291
▁during	-3292
okrat	-3293
uelle	-3294
▁interact	-3295
▁common	-3296
▁realized	-3297
▁Organis	-3298
▁lim	-3299
▁record	-3300
▁parents	-3301
wand	-3302
▁Part	-3303
▁vorher	-3304
▁difference	-3305
▁Je	-3306
uren	-3307
▁getan	-3308
aren	-3309
chter	-3310
▁eyes	-3311
▁serv	-3312
▁pattern	-3313
▁reality	-3314
sk	-3315
ufen	-3316
▁saf	-3317
inder	-3318
▁John	-3319
▁Meer	-3320
▁image	-3321
▁personal	-3322
jor	-3323
astic	-3324
▁short	-3325
ai	-3326
▁bewegen	-3327
opp	-3328
orth	-3329
scheiden	-3330
▁Bereich	-3331
▁Herausforder	-3332
▁Kle	-3333
aring	-3334
▁seven	-3335
▁behavior	-3336
▁unterschied	-3337
tt	-3338
▁Fahr	-3339
▁close	-3340
▁event	-3341
▁friend	-3342
▁seeing	-3343
▁bir	-3344
▁tief	-3345
▁needed	-3346
▁connect	-3347
▁const	-3348
ony	-3349
tention	-3350
▁fühlen	-3351
▁wusste	-3352
rag	-3353
▁tem	-3354
▁century	-3355
▁90	-3356
▁Oh	-3357
ände	-3358
▁eher	-3359
▁hands	-3360
▁indust	-3361
▁experiment	-3362
▁Anfang	-3363
▁digital	-3364
verage	-3365
▁sozial	-3366
unch	-3367
▁auss	-3368
▁turned	-3369
genommen	-3370
▁nämlich	-3371
▁population	-3372
druck	-3373
▁reach	-3374
year	-3375
▁area	-3376
▁communic	-3377
▁leave	-3378
ließen	-3379
▁Stellen	-3380
zustellen	-3381
▁unglaublich	-3382
▁pract	-3383
oun	-3384
▁access	-3385
▁explain	-3386
zy	-3387
▁Hö	-3388
▁perhaps	-3389
▁beginnen	-3390
▁Har	-3391
▁film	-3392
idence	-3393
▁Video	-3394
nal	-3395
häng	-3396
system	-3397
imp	-3398
▁Cl	-3399
▁Prä	-3400
orten	-3401
▁powerful	-3402
▁companies	-3403
erweise	-3404
urt	-3405
▁low	-3406
▁Fort	-3407
▁cities	-3408
ove	-3409
haft	-3410
oten	-3411
völker	-3412
▁Material	-3413
▁überhaupt	-3414
▁desc	-3415
▁profess	-3416
▁Erfahrung	-3417
▁menschlichen	-3418
lex	-3419
▁Klim	-3420
▁stay	-3421
oud	-3422
▁Zug	-3423
▁Flug	-3424
▁longer	-3425
▁simply	-3426
min	-3427
▁treffen	-3428
▁absolute	-3429
auso	-3430
▁Werk	-3431
▁meines	-3432
▁moving	-3433
iale	-3434
▁fort	-3435
▁stra	-3436
▁beginning	-3437
▁eight	-3438
▁cannot	-3439
▁ern	-3440
▁green	-3441
▁recogn	-3442
▁finally	-3443
▁17	-3444
▁Dieser	-3445
ehen	-3446
baren	-3447
▁Stück	-3448
ünde	-3449
berfl	-3450
▁local	-3451
▁major	-3452
▁schauen	-3453
mm	-3454
book	-3455
▁hold	-3456
▁/	-3457
▁allem	-3458
▁zer	-3459
itter	-3460
▁zwar	-3461
▁ocean	-3462
▁father	-3463
▁gleichen	-3464
cially	-3465
enne	-3466
ächst	-3467
▁Job	-3468
▁obs	-3469
auben	-3470
▁dein	-3471
▁fish	-3472
▁surv	-3473
▁grand	-3474
▁Wochen	-3475
▁potent	-3476
ox	-3477
ails	-3478
ially	-3479
▁verwenden	-3480
IV	-3481
lev	-3482
▁Sit	-3483
▁Zum	-3484
▁beob	-3485
isieren	-3486
alax	-3487
▁Just	-3488
▁Mittel	-3489
▁People	-3490
▁May	-3491
▁Lage	-3492
▁inde	-3493
▁spra	-3494
▁Sachen	-3495
▁perfect	-3496
▁support	-3497
▁ve	-3498
▁Chin	-3499
▁parts	-3500
▁Roboter	-3501
▁bel	-3502
elten	-3503
▁tut	-3504
annten	-3505
▁terms	-3506
▁verste	-3507
▁Gebäude	-3508
▁archite	-3509
▁fundament	-3510
part	-3511
▁Polit	-3512
▁Tages	-3513
▁innerhalb	-3514
▁vö	-3515
▁occ	-3516
▁kamen	-3517
▁bereit	-3518
▁expect	-3519
▁perform	-3520
▁versucht	-3521
▁political	-3522
bol	-3523
▁Mil	-3524
▁viol	-3525
zieren	-3526
ichen	-3527
▁blood	-3528
▁surpr	-3529
umm	-3530
nahme	-3531
▁fragte	-3532
▁70	-3533
ingt	-3534
ology	-3535
▁scale	-3536
▁economic	-3537
▁Tiere	-3538
▁Res	-3539
ziehen	-3540
▁Freunde	-3541
▁HIV	-3542
▁paper	-3543
ana	-3544
iot	-3545
▁cal	-3546
ledge	-3547
▁ansch	-3548
▁inspir	-3549
schaffen	-3550
bel	-3551
ised	-3552
▁Entwicklung	-3553
hood	-3554
orie	-3555
fully	-3556
▁mussten	-3557
▁wonderful	-3558
text	-3559
▁Car	-3560
▁oil	-3561
ama	-3562
ived	-3563
uell	-3564
▁Umwelt	-3565
inary	-3566
▁Liebe	-3567
▁jedoch	-3568
acy	-3569
uth	-3570
ball	-3571
▁obvious	-3572
ötz	-3573
ängt	-3574
ürger	-3575
iction	-3576
▁verst	-3577
bor	-3578
▁Su	-3579
▁enc	-3580
▁interested	-3581
oon	-3582
zub	-3583
pression	-3584
alif	-3585
omat	-3586
▁Trans	-3587
▁falsch	-3588
by	-3589
▁send	-3590
ources	-3591
antwort	-3592
▁weitere	-3593
▁Hilfe	-3594
▁phone	-3595
▁tried	-3596
Oh	-3597
▁nu	-3598
tete	-3599
ritte	-3600
▁Tage	-3601
▁fore	-3602
▁Länder	-3603
▁special	-3604
▁menschliche	-3605
▁Ro	-3606
▁ground	-3607
▁Gedanken	-3608
bit	-3609
▁Rest	-3610
▁present	-3611
izing	-3612
iny	-3613
pid	-3614
▁fu	-3615
▁size	-3616
▁Denken	-3617
▁evolution	-3618
▁mole	-3619
▁Essen	-3620
▁eigene	-3621
▁gemeinsam	-3622
äss	-3623
▁13	-3624
▁Nat	-3625
▁key	-3626
▁Park	-3627
▁quickly	-3628
ücke	-3629
▁leg	-3630
▁ability	-3631
▁niemand	-3632
▁Möglichkeiten	-3633
wär	-3634
hnen	-3635
▁nächste	-3636
imme	-3637
▁sun	-3638
▁solche	-3639
▁Geschäft	-3640
achst	-3641
ahren	-3642
ichter	-3643
▁known	-3644
▁press	-3645
▁Sicherheit	-3646
lam	-3647
▁circ	-3648
▁break	-3649
▁erstaun	-3650
▁whatever	-3651
isse	-3652
▁gone	-3653
▁lost	-3654
▁spent	-3655
kü	-3656
▁Dr	-3657
udden	-3658
▁World	-3659
▁humans	-3660
▁völlig	-3661
▁value	-3662
▁Ant	-3663
▁Nacht	-3664
ibility	-3665
▁folgen	-3666
ele	-3667
sein	-3668
▁buy	-3669
▁lab	-3670
▁ple	-3671
statt	-3672
▁blue	-3673
▁Struktur	-3674
iziert	-3675
▁moral	-3676
ublikum	-3677
▁Japan	-3678
▁media	-3679
iagn	-3680
▁Gren	-3681
▁Dingen	-3682
▁damals	-3683
▁patients	-3684
▁interessant	-3685
mus	-3686
▁Viele	-3687
▁mathemat	-3688
ests	-3689
▁Pap	-3690
▁democ	-3691
▁deren	-3692
▁direkt	-3693
hor	-3694
elte	-3695
▁198	-3696
▁erre	-3697
▁conc	-3698
▁weeks	-3699
▁Sk	-3700
ouch	-3701
▁requ	-3702
▁lösen	-3703
ban	-3704
▁Af	-3705
zentr	-3706
▁letzte	-3707
▁bleiben	-3708
▁Tier	-3709
ämp	-3710
▁21	-3711
pekt	-3712
▁Tre	-3713
zellen	-3714
▁Boden	-3715
▁Prozess	-3716
▁verbess	-3717
Das	-3718
bon	-3719
▁Haupt	-3720
▁shows	-3721
▁wären	-3722
▁unters	-3723
▁architect	-3724
abil	-3725
anach	-3726
cious	-3727
ently	-3728
▁stark	-3729
▁obwohl	-3730
▁genauso	-3731
ilos	-3732
▁Kap	-3733
▁Will	-3734
▁sle	-3735
▁enorm	-3736
▁leaders	-3737
▁Our	-3738
▁orig	-3739
ötzlich	-3740
▁worden	-3741
▁Familien	-3742
rote	-3743
▁Lehrer	-3744
▁strong	-3745
▁approach	-3746
▁Rei	-3747
▁ged	-3748
▁Chris	-3749
▁robot	-3750
▁Zellen	-3751
▁sitting	-3752
gn	-3753
irm	-3754
lin	-3755
orning	-3756
hrte	-3757
raum	-3758
▁suchen	-3759
▁caus	-3760
▁feed	-3761
▁anderer	-3762
▁box	-3763
merikan	-3764
▁Universum	-3765
▁jo	-3766
hören	-3767
▁Neur	-3768
▁Wahl	-3769
▁dark	-3770
▁schlecht	-3771
▁opportunity	-3772
ills	-3773
▁emp	-3774
rieden	-3775
▁bringt	-3776
▁either	-3777
▁schreiben	-3778
arr	-3779
▁born	-3780
▁thank	-3781
izieren	-3782
▁direct	-3783
▁sollen	-3784
▁Oze	-3785
▁Woche	-3786
sc	-3787
yr	-3788
aught	-3789
ieten	-3790
▁challenge	-3791
orge	-3792
▁pres	-3793
cin	-3794
ains	-3795
tens	-3796
lungs	-3797
▁unseres	-3798
reg	-3799
ites	-3800
▁hor	-3801
▁Grunde	-3802
oph	-3803
ades	-3804
▁Gesicht	-3805
icks	-3806
▁instit	-3807
com	-3808
ghan	-3809
▁Per	-3810
▁Vir	-3811
▁essen	-3812
▁fight	-3813
▁Monate	-3814
▁growth	-3815
▁measure	-3816
▁neg	-3817
▁step	-3818
▁Namen	-3819
▁Thema	-3820
▁Unsere	-3821
▁persön	-3822
▁climate	-3823
▁Mikro	-3824
▁respons	-3825
▁consider	-3826
yl	-3827
▁dad	-3828
ograf	-3829
▁based	-3830
ales	-3831
mosph	-3832
▁Blut	-3833
▁writ	-3834
▁Unterschied	-3835
▁Verl	-3836
▁write	-3837
▁feeling	-3838
▁structure	-3839
bau	-3840
ksam	-3841
▁Nein	-3842
ausende	-3843
▁Wahrheit	-3844
lef	-3845
este	-3846
▁hervor	-3847
▁clos	-3848
▁fail	-3849
bten	-3850
▁trotz	-3851
▁Bau	-3852
▁Ist	-3853
▁Hoff	-3854
uellen	-3855
▁wouldn	-3856
▁Ster	-3857
oes	-3858
rab	-3859
What	-3860
▁Dam	-3861
▁Meth	-3862
▁Elekt	-3863
▁grund	-3864
▁white	-3865
▁Instit	-3866
isiert	-3867
▁changes	-3868
▁morning	-3869
▁National	-3870
We	-3871
You	-3872
zin	-3873
▁Kü	-3874
omin	-3875
▁Bra	-3876
▁slow	-3877
▁virt	-3878
ierend	-3879
▁Lösung	-3880
▁größten	-3881
hält	-3882
▁lässt	-3883
▁betrachten	-3884
kre	-3885
▁Kar	-3886
usion	-3887
▁West	-3888
lossen	-3889
▁teilen	-3890
▁Sek	-3891
▁gleiche	-3892
▁attention	-3893
▁scientists	-3894
!"	-3895
ators	-3896
hrung	-3897
▁schwierig	-3898
▁kn	-3899
lang	-3900
vest	-3901
▁Pfl	-3902
▁nahm	-3903
▁schre	-3904
▁economy	-3905
▁det	-3906
ilden	-3907
wusst	-3908
▁unten	-3909
▁numbers	-3910
▁realize	-3911
iant	-3912
reds	-3913
▁path	-3914
cks	-3915
▁feet	-3916
▁pull	-3917
ission	-3918
▁Ihren	-3919
▁führt	-3920
▁mechan	-3921
▁besteht	-3922
uit	-3923
▁Autos	-3924
▁literally	-3925
bert	-3926
ival	-3927
▁Stand	-3928
▁Verein	-3929
▁dessen	-3930
▁average	-3931
▁surface	-3932
zogen	-3933
▁okay	-3934
ysteme	-3935
▁growing	-3936
Well	-3937
elbe	-3938
▁kont	-3939
▁main	-3940
nahmen	-3941
▁alone	-3942
▁favor	-3943
▁Archite	-3944
▁incredible	-3945
öße	-3946
▁ed	-3947
▁Best	-3948
▁individual	-3949
▁Vort	-3950
▁fall	-3951
▁farm	-3952
▁convers	-3953
▁Wissenschaftler	-3954
▁Mo	-3955
▁ermö	-3956
▁Europ	-3957
▁wrote	-3958
▁sudden	-3959
▁photograph	-3960
ops	-3961
▁Heute	-3962
▁Markt	-3963
▁areas	-3964
▁liebe	-3965
▁neigh	-3966
ored	-3967
wirk	-3968
▁Mag	-3969
▁Bede	-3970
▁Lond	-3971
spro	-3972
ances	-3973
▁Frei	-3974
▁Right	-3975
▁animal	-3976
▁brought	-3977
falls	-3978
osition	-3979
▁bottom	-3980
▁international	-3981
gor	-3982
uters	-3983
▁teil	-3984
▁Publikum	-3985
erstör	-3986
In	-3987
rän	-3988
ploy	-3989
term	-3990
▁Nahr	-3991
▁essent	-3992
▁impact	-3993
oid	-3994
▁Är	-3995
▁seems	-3996
▁sterben	-3997
▁erinnern	-3998
▁funktionieren	-3999
▁clear	-4000
▁giving	-4001
▁gelernt	-4002
▁komplex	-4003
▁hy	-4004
fluss	-4005
▁Mich	-4006
gebung	-4007
ikaner	-4008
▁girls	-4009
▁Bürger	-4010
▁telling	-4011
▁physical	-4012
▁eat	-4013
reifen	-4014
▁Medik	-4015
▁zweite	-4016
▁meaning	-4017
▁univers	-4018
▁knowledge	-4019
ätze	-4020
ügen	-4021
▁Fin	-4022
▁ign	-4023
rogen	-4024
▁comb	-4025
▁zuvor	-4026
▁Lassen	-4027
▁mer	-4028
▁ersch	-4029
▁größte	-4030
Und	-4031
ows	-4032
▁Plan	-4033
▁Wert	-4034
▁benöt	-4035
▁scheint	-4036
Was	-4037
▁Afghan	-4038
ips	-4039
▁Erw	-4040
▁mom	-4041
ouble	-4042
▁Fern	-4043
▁transform	-4044
▁verbunden	-4045
jähr	-4046
chsel	-4047
itzen	-4048
▁draw	-4049
▁road	-4050
▁Staaten	-4051
▁London	-4052
▁starting	-4053
▁erschaffen	-4054
äm	-4055
ilar	-4056
weis	-4057
▁Red	-4058
▁Sym	-4059
▁vol	-4060
▁cars	-4061
▁South	-4062
▁amerikan	-4063
ex	-4064
zw	-4065
äß	-4066
gorith	-4067
igkeiten	-4068
▁Gemeinschaft	-4069
ks	-4070
▁Tw	-4071
oose	-4072
▁flo	-4073
▁fanden	-4074
▁images	-4075
▁Ländern	-4076
▁syn	-4077
gegen	-4078
▁Zahl	-4079
▁books	-4080
unehmen	-4081
ilome	-4082
▁Tats	-4083
use	-4084
▁arr	-4085
▁Bedeut	-4086
▁beeinfl	-4087
▁experien	-4088
▁hundreds	-4089
▁Pf	-4090
chie	-4091
äuft	-4092
▁Gef	-4093
▁Mot	-4094
gessen	-4095
ustain	-4096
▁langsam	-4097
völkerung	-4098
aged	-4099
▁Brit	-4100
▁foot	-4101
gefühl	-4102
ustrie	-4103
▁medic	-4104
▁Arbeits	-4105
▁gefunden	-4106
▁24	-4107
▁fem	-4108
alien	-4109
frast	-4110
jekte	-4111
zeigt	-4112
▁block	-4113
▁stellt	-4114
▁bekannt	-4115
▁national	-4116
▁understanding	-4117
▁Rel	-4118
▁log	-4119
ziale	-4120
▁lesen	-4121
▁"(	-4122
lagen	-4123
ändig	-4124
udenten	-4125
▁forward	-4126
aff	-4127
finden	-4128
▁Sehen	-4129
▁color	-4130
▁tools	-4131
eng	-4132
▁truth	-4133
▁öffent	-4134
▁developed	-4135
▁schließlich	-4136
licht	-4137
▁Krieg	-4138
itze	-4139
▁Web	-4140
inzip	-4141
▁hosp	-4142
▁prim	-4143
▁prom	-4144
▁soon	-4145
▁suff	-4146
▁Recht	-4147
▁draußen	-4148
▁500	-4149
▁schrieb	-4150
▁Kat	-4151
▁City	-4152
▁Team	-4153
▁Yeah	-4154
▁Innov	-4155
▁leicht	-4156
▁includ	-4157
bre	-4158
ped	-4159
▁tw	-4160
iber	-4161
ynam	-4162
▁San	-4163
▁map	-4164
Video	-4165
ochen	-4166
▁crit	-4167
▁dead	-4168
estern	-4169
▁Schritt	-4170
▁running	-4171
▁CO	-4172
cker	-4173
▁emer	-4174
heiten	-4175
zeitig	-4176
▁enter	-4177
▁anyone	-4178
arbeitet	-4179
berfläche	-4180
▁Bewegung	-4181
res	-4182
▁deg	-4183
▁prin	-4184
▁behand	-4185
▁unterst	-4186
▁Jed	-4187
ragen	-4188
▁rein	-4189
▁schwar	-4190
▁Kranken	-4191
älter	-4192
▁Jeder	-4193
▁discovered	-4194
▁Öl	-4195
▁Com	-4196
▁spread	-4197
olz	-4198
▁hon	-4199
atten	-4200
▁bege	-4201
▁fair	-4202
ünstler	-4203
▁protect	-4204
▁verschw	-4205
▁millions	-4206
▁kaufen	-4207
▁gewesen	-4208
▁Realität	-4209
▁creating	-4210
Sch	-4211
ieg	-4212
ativ	-4213
▁modern	-4214
▁dream	-4215
aliforn	-4216
▁Medien	-4217
▁Modell	-4218
▁Technik	-4219
aul	-4220
▁Di	-4221
▁squ	-4222
▁sehe	-4223
▁text	-4224
▁Labor	-4225
▁sleep	-4226
pecially	-4227
uchs	-4228
▁197	-4229
▁Ben	-4230
clear	-4231
▁curr	-4232
▁größer	-4233
▁travel	-4234
▁revolution	-4235
▁led	-4236
▁hast	-4237
▁choice	-4238
▁bewusst	-4239
aly	-4240
icans	-4241
▁erklären	-4242
▁passieren	-4243
▁&	-4244
oper	-4245
zeuge	-4246
▁Einige	-4247
▁allein	-4248
▁consum	-4249
▁weltweit	-4250
▁miteinander	-4251
iod	-4252
▁Süd	-4253
▁perfe	-4254
▁center	-4255
▁electric	-4256
▁Revolution	-4257
ha	-4258
jen	-4259
bene	-4260
inos	-4261
forsch	-4262
▁voice	-4263
▁visual	-4264
▁serious	-4265
:"	-4266
head	-4267
▁lif	-4268
atell	-4269
hnung	-4270
örter	-4271
gliche	-4272
▁worth	-4273
▁Gewalt	-4274
▁theory	-4275
▁Natürlich	-4276
icy	-4277
iled	-4278
▁Ris	-4279
▁ice	-4280
recht	-4281
lebt	-4282
▁aussehen	-4283
.,	-4284
ube	-4285
ules	-4286
zens	-4287
▁miles	-4288
agieren	-4289
▁Deshalb	-4290
▁est	-4291
▁mob	-4292
gewöhn	-4293
▁solve	-4294
umb	-4295
▁Sol	-4296
älfte	-4297
▁fert	-4298
itäten	-4299
▁finan	-4300
prochen	-4301
▁gegenüber	-4302
ras	-4303
obody	-4304
▁Face	-4305
▁wert	-4306
▁guess	-4307
▁issue	-4308
▁neues	-4309
▁Aufgabe	-4310
▁Verbindung	-4311
▁nice	-4312
▁unbe	-4313
▁hinaus	-4314
asing	-4315
ollen	-4316
▁Pers	-4317
gten	-4318
ktor	-4319
▁har	-4320
▁erfolg	-4321
▁jemals	-4322
▁likely	-4323
▁sieben	-4324
▁positive	-4325
▁recently	-4326
▁intelligen	-4327
bere	-4328
▁Ihrem	-4329
▁Sicht	-4330
▁mache	-4331
go	-4332
▁gives	-4333
▁asking	-4334
▁Während	-4335
▁audience	-4336
▁300	-4337
▁dro	-4338
blick	-4339
▁Stre	-4340
▁type	-4341
iation	-4342
▁Kraft	-4343
isst	-4344
uals	-4345
▁def	-4346
▁ausge	-4347
▁avail	-4348
▁beginnt	-4349
▁concept	-4350
▁verloren	-4351
▁ak	-4352
▁000	-4353
▁prop	-4354
ulture	-4355
▁Fisch	-4356
▁Stimme	-4357
▁technologies	-4358
eum	-4359
put	-4360
▁Met	-4361
produ	-4362
▁With	-4363
▁force	-4364
▁showed	-4365
ja	-4366
des	-4367
imin	-4368
organ	-4369
▁Alles	-4370
▁Ihrer	-4371
▁welches	-4372
▁AI	-4373
idge	-4374
▁Eis	-4375
urity	-4376
▁Alle	-4377
▁bitte	-4378
▁English	-4379
▁Tit	-4380
▁verm	-4381
▁Reihe	-4382
▁civil	-4383
▁stage	-4384
▁plötzlich	-4385
▁absolutely	-4386
▁development	-4387
ctors	-4388
▁Aben	-4389
assion	-4390
▁Muster	-4391
▁glücklich	-4392
▁entscheiden	-4393
▁wissenschaft	-4394
▁Dav	-4395
▁jen	-4396
▁optim	-4397
▁sofort	-4398
▁Programm	-4399
▁especially	-4400
SA	-4401
▁1,	-4402
▁Som	-4403
▁eye	-4404
wegen	-4405
▁spir	-4406
▁toll	-4407
▁chance	-4408
▁ear	-4409
ungsk	-4410
▁sever	-4411
▁movement	-4412
rift	-4413
wert	-4414
▁ann	-4415
alter	-4416
stein	-4417
▁Besch	-4418
▁among	-4419
▁daraus	-4420
▁möchten	-4421
▁industry	-4422
▁Tatsächlich	-4423
ores	-4424
▁App	-4425
▁Tem	-4426
▁dru	-4427
▁aren	-4428
▁raus	-4429
▁Anzahl	-4430
▁wachsen	-4431
▁incredibly	-4432
rig	-4433
son	-4434
▁Ke	-4435
▁tend	-4436
▁Platz	-4437
▁Christ	-4438
▁proper	-4439
▁deshalb	-4440
▁nachdem	-4441
▁tö	-4442
▁hig	-4443
▁rate	-4444
▁identif	-4445
▁medical	-4446
▁Tatsache	-4447
yond	-4448
▁tiny	-4449
▁neben	-4450
▁Studie	-4451
lim	-4452
zte	-4453
anze	-4454
oices	-4455
merksam	-4456
vention	-4457
▁issues	-4458
▁stellte	-4459
ampf	-4460
aubt	-4461
stens	-4462
▁Super	-4463
▁carbon	-4464
▁Facebook	-4465
▁designed	-4466
cond	-4467
fern	-4468
▁Rad	-4469
iesen	-4470
▁Viel	-4471
▁Austr	-4472
▁bekam	-4473
▁shape	-4474
▁solution	-4475
▁Forschung	-4476
▁Entscheidungen	-4477
mar	-4478
▁post	-4479
▁period	-4480
▁Demokrat	-4481
▁Richtung	-4482
ada	-4483
haf	-4484
iko	-4485
rolle	-4486
ühren	-4487
▁egal	-4488
setzen	-4489
▁Blick	-4490
▁Rolle	-4491
▁patient	-4492
▁entfernt	-4493
▁geworden	-4494
▁konzentr	-4495
Pro	-4496
ique	-4497
▁Ken	-4498
roffen	-4499
▁progress	-4500
▁Bedeutung	-4501
▁camp	-4502
▁fing	-4503
▁haven	-4504
▁trust	-4505
▁Erfolg	-4506
▁search	-4507
▁kleines	-4508
▁changing	-4509
▁resources	-4510
▁Afghanistan	-4511
asen	-4512
▁sea	-4513
▁kleiner	-4514
öst	-4515
▁übr	-4516
ifall	-4517
▁save	-4518
▁react	-4519
▁reasons	-4520
▁similar	-4521
stru	-4522
▁pur	-4523
▁intro	-4524
▁nimmt	-4525
▁Städte	-4526
▁By	-4527
▁et	-4528
▁tat	-4529
▁vill	-4530
▁danach	-4531
▁kü	-4532
▁fire	-4533
▁gebaut	-4534
▁Chinese	-4535
▁sustain	-4536
▁anfangen	-4537
▁Studenten	-4538
▁Vorstellung	-4539
band	-4540
▁bor	-4541
▁sell	-4542
▁blind	-4543
▁gefähr	-4544
▁gezeigt	-4545
▁playing	-4546
▁Technologien	-4547
▁achie	-4548
▁cover	-4549
how	-4550
▁pack	-4551
▁zehn	-4552
▁benef	-4553
▁überw	-4554
▁Hälfte	-4555
▁beschäft	-4556
▁Ök	-4557
umor	-4558
▁eth	-4559
▁fix	-4560
dlich	-4561
▁Produkt	-4562
Wir	-4563
legt	-4564
▁fur	-4565
▁lay	-4566
▁jemanden	-4567
▁komplett	-4568
kehr	-4569
racy	-4570
▁zus	-4571
▁dram	-4572
▁solar	-4573
▁Sonnen	-4574
▁attack	-4575
▁bekommt	-4576
▁soziale	-4577
sichtlich	-4578
▁ko	-4579
fore	-4580
bsite	-4581
▁Foto	-4582
▁Reise	-4583
▁falls	-4584
▁touch	-4585
▁Straßen	-4586
▁evidence	-4587
▁Nord	-4588
▁bist	-4589
▁becomes	-4590
▁available	-4591
▁Herausforderung	-4592
▁196	-4593
zeugt	-4594
wusstsein	-4595
aß	-4596
▁Fuß	-4597
▁hil	-4598
ünden	-4599
▁Eigen	-4600
▁Meinung	-4601
▁genannt	-4602
▁X	-4603
▁North	-4604
Beifall	-4605
itation	-4606
▁beyond	-4607
omb	-4608
hern	-4609
▁Erd	-4610
▁flu	-4611
▁Mathemat	-4612
▁anc	-4613
▁ult	-4614
griff	-4615
▁Prof	-4616
▁Wind	-4617
gemein	-4618
▁groups	-4619
▁Beziehung	-4620
ißen	-4621
wind	-4622
▁Arm	-4623
teilt	-4624
sequen	-4625
▁länger	-4626
▁Bildung	-4627
▁geboren	-4628
▁Nachrichten	-4629
afft	-4630
änge	-4631
dessen	-4632
▁niemals	-4633
▁nachdenken	-4634
0,	-4635
▁Fä	-4636
setz	-4637
▁Tür	-4638
▁yes	-4639
▁Größe	-4640
▁Europa	-4641
▁findet	-4642
isierung	-4643
▁verrück	-4644
rü	-4645
▁acht	-4646
zufinden	-4647
▁developing	-4648
▁erfolgreich	-4649
▁cop	-4650
▁died	-4651
▁samm	-4652
achstum	-4653
bringen	-4654
▁Umgebung	-4655
ücht	-4656
▁bar	-4657
üssel	-4658
▁Phys	-4659
▁First	-4660
▁Teile	-4661
▁clean	-4662
▁knows	-4663
▁gingen	-4664
▁towards	-4665
schie	-4666
▁baby	-4667
ichtet	-4668
▁guten	-4669
▁sounds	-4670
▁Wirklich	-4671
▁Ira	-4672
ussen	-4673
▁Kolle	-4674
▁lived	-4675
▁lieben	-4676
▁subject	-4677
öne	-4678
rate	-4679
verty	-4680
▁Stat	-4681
▁infl	-4682
indern	-4683
▁smart	-4684
▁situation	-4685
▁generation	-4686
▁innovation	-4687
ags	-4688
roh	-4689
auft	-4690
itch	-4691
▁Hel	-4692
▁aufge	-4693
▁daher	-4694
▁Behand	-4695
▁except	-4696
▁Regier	-4697
▁talked	-4698
▁hundred	-4699
igent	-4700
▁machten	-4701
▁Bel	-4702
▁sor	-4703
ining	-4704
teile	-4705
utage	-4706
▁rece	-4707
▁basic	-4708
agement	-4709
▁Fehler	-4710
▁Generation	-4711
kel	-4712
▁mut	-4713
▁Zent	-4714
▁drive	-4715
▁danger	-4716
▁involved	-4717
▁lau	-4718
ishing	-4719
▁laufen	-4720
arbeiten	-4721
▁computers	-4722
rel	-4723
unkte	-4724
▁David	-4725
▁hoffe	-4726
▁veröff	-4727
▁brachte	-4728
▁Veränderung	-4729
ms	-4730
▁Beg	-4731
▁Von	-4732
▁flow	-4733
▁Maybe	-4734
▁rules	-4735
unktion	-4736
▁putting	-4737
▁Situation	-4738
DS	-4739
▁Of	-4740
come	-4741
▁table	-4742
▁benutzt	-4743
▁several	-4744
▁pictures	-4745
amb	-4746
iers	-4747
room	-4748
trauen	-4749
▁Aktiv	-4750
▁milit	-4751
▁sonst	-4752
▁bigger	-4753
▁produce	-4754
esh	-4755
ällt	-4756
▁Einz	-4757
▁sent	-4758
▁Geist	-4759
▁alten	-4760
▁beide	-4761
▁schau	-4762
▁message	-4763
▁predict	-4764
gra	-4765
mung	-4766
▁Bar	-4767
ously	-4768
▁Chem	-4769
utzutage	-4770
▁writing	-4771
ideos	-4772
▁Amerika	-4773
▁geh	-4774
▁drug	-4775
lassen	-4776
ämpfen	-4777
▁Straße	-4778
▁depend	-4779
▁street	-4780
▁verwendet	-4781
xy	-4782
lage	-4783
ängen	-4784
äsent	-4785
ätzen	-4786
▁Firma	-4787
▁total	-4788
fre	-4789
▁Ju	-4790
▁Na	-4791
▁iP	-4792
plant	-4793
▁wall	-4794
▁mögen	-4795
▁Medizin	-4796
▁op	-4797
äume	-4798
▁nine	-4799
▁Fortsch	-4800
▁fliegen	-4801
▁strateg	-4802
▁function	-4803
▁schneller	-4804
ille	-4805
▁Nie	-4806
▁sat	-4807
▁Prinzip	-4808
▁Hoffnung	-4809
▁perspect	-4810
adem	-4811
▁wid	-4812
odies	-4813
▁appl	-4814
▁Psych	-4815
▁multi	-4816
▁Jahrze	-4817
▁ziehen	-4818
▁erreicht	-4819
▁betrachte	-4820
▁di	-4821
pfer	-4822
arily	-4823
esser	-4824
▁moder	-4825
▁necess	-4826
▁Politik	-4827
▁Don	-4828
▁Hir	-4829
▁Maß	-4830
▁Nur	-4831
▁lern	-4832
nehmer	-4833
▁Armut	-4834
▁Kommun	-4835
▁schools	-4836
iate	-4837
▁ball	-4838
▁Mitte	-4839
▁Relig	-4840
▁walking	-4841
▁compassion	-4842
▁Bas	-4843
ossen	-4844
ücken	-4845
▁anzu	-4846
▁motiv	-4847
▁nachzu	-4848
▁poverty	-4849
▁character	-4850
itor	-4851
▁Bab	-4852
▁sod	-4853
▁Zahlen	-4854
▁vision	-4855
▁suggest	-4856
auch	-4857
vert	-4858
▁Männ	-4859
indest	-4860
▁speed	-4861
möglich	-4862
▁sozialen	-4863
▁Sex	-4864
ienst	-4865
ground	-4866
▁bacter	-4867
▁faszin	-4868
▁integr	-4869
▁liegen	-4870
▁Maschine	-4871
oke	-4872
ikel	-4873
▁elekt	-4874
olf	-4875
▁near	-4876
▁moved	-4877
▁zeige	-4878
bildung	-4879
▁stimmt	-4880
▁violence	-4881
Die	-4882
affe	-4883
▁See	-4884
▁conv	-4885
▁activ	-4886
▁dramat	-4887
▁potential	-4888
▁fundamental	-4889
oß	-4890
▁Id	-4891
imal	-4892
ises	-4893
artet	-4894
jenigen	-4895
▁gegeben	-4896
▁wirtschaft	-4897
imen	-4898
▁Russ	-4899
▁Schü	-4900
▁evol	-4901
▁sold	-4902
▁links	-4903
▁plant	-4904
schieden	-4905
▁particularly	-4906
Th	-4907
nete	-4908
▁Auch	-4909
▁Daher	-4910
▁fahren	-4911
ürz	-4912
lauf	-4913
▁Sau	-4914
▁drugs	-4915
▁office	-4916
▁Tat	-4917
▁mis	-4918
▁Gruppen	-4919
▁deliver	-4920
▁represent	-4921
▁verurs	-4922
▁capital	-4923
rage	-4924
▁hit	-4925
feren	-4926
▁frei	-4927
▁Alter	-4928
▁Bakter	-4929
▁Kosten	-4930
▁Schauen	-4931
back	-4932
▁akt	-4933
ziert	-4934
▁Sonne	-4935
▁refle	-4936
▁action	-4937
▁hinein	-4938
▁Studien	-4939
▁biggest	-4940
wirtschaft	-4941
▁Entwicklungs	-4942
▁cy	-4943
itet	-4944
▁Hoch	-4945
▁park	-4946
▁rich	-4947
isions	-4948
▁nennt	-4949
▁African	-4950
▁dachten	-4951
▁extraord	-4952
▁herauszufinden	-4953
piele	-4954
▁apart	-4955
▁device	-4956
▁account	-4957
▁einfache	-4958
▁favorite	-4959
▁genommen	-4960
▁neighbor	-4961
anda	-4962
enken	-4963
▁interessiert	-4964
▁Ed	-4965
inne	-4966
isco	-4967
▁Kan	-4968
▁door	-4969
ological	-4970
▁general	-4971
ette	-4972
feld	-4973
▁rock	-4974
▁After	-4975
▁breat	-4976
▁Zugang	-4977
▁setzen	-4978
▁threat	-4979
▁anybody	-4980
▁Ergebnis	-4981
▁University	-4982
ford	-4983
rief	-4984
teilen	-4985
▁Niger	-4986
▁Strom	-4987
▁gesamte	-4988
▁bestimmt	-4989
So	-4990
▁Abs	-4991
flict	-4992
onstr	-4993
▁bank	-4994
▁Genau	-4995
▁anstatt	-4996
▁conscious	-4997
▁Yes	-4998
▁Eink	-4999
lungen	-5000
▁Hinter	-5001
▁tragen	-5002
▁showing	-5003
▁Fähigkeiten	-5004
▁1.	-5005
▁Zw	-5006
▁Dor	-5007
▁repl	-5008
▁sahen	-5009
▁journey	-5010
▁nuclear	-5011
▁kontroll	-5012
more	-5013
▁Spr	-5014
▁AIDS	-5015
▁verbessern	-5016
hre	-5017
antly	-5018
ivität	-5019
▁Preis	-5020
▁meant	-5021
▁minds	-5022
▁ready	-5023
▁älter	-5024
▁histor	-5025
▁software	-5026
▁Menschheit	-5027
rael	-5028
▁member	-5029
▁verwand	-5030
▁zerstör	-5031
wirkungen	-5032
▁supposed	-5033
▁wichtiger	-5034
ech	-5035
schw	-5036
seite	-5037
unger	-5038
▁Leid	-5039
▁compet	-5040
▁further	-5041
▁begannen	-5042
▁Demokratie	-5043
▁scientific	-5044
zü	-5045
ürf	-5046
wesen	-5047
▁prot	-5048
▁Karte	-5049
▁diagn	-5050
▁largest	-5051
▁communities	-5052
cts	-5053
enk	-5054
olekü	-5055
▁Orte	-5056
▁bill	-5057
▁onto	-5058
gendes	-5059
▁separ	-5060
▁Papier	-5061
▁früher	-5062
▁screen	-5063
▁bessere	-5064
▁examples	-5065
▁Mitgefühl	-5066
▁Meter	-5067
▁junge	-5068
▁kreat	-5069
▁wants	-5070
▁Wörter	-5071
▁memory	-5072
▁student	-5073
▁transport	-5074
▁safe	-5075
▁context	-5076
bald	-5077
onse	-5078
stre	-5079
▁Wel	-5080
▁bald	-5081
▁quality	-5082
▁Künstler	-5083
▁exciting	-5084
▁wichtige	-5085
▁certainly	-5086
▁vergessen	-5087
erve	-5088
usch	-5089
▁Det	-5090
▁gebe	-5091
▁heut	-5092
▁role	-5093
ielten	-5094
▁Wieder	-5095
▁Mc	-5096
wood	-5097
oming	-5098
▁Schwe	-5099
▁Telef	-5100
▁peace	-5101
▁verfü	-5102
erstoff	-5103
▁higher	-5104
▁starts	-5105
▁Nachbar	-5106
bung	-5107
plan	-5108
▁ehr	-5109
▁fill	-5110
▁wish	-5111
wasser	-5112
weisen	-5113
▁named	-5114
▁camera	-5115
▁medizin	-5116
▁results	-5117
pped	-5118
▁Vol	-5119
▁warm	-5120
abhäng	-5121
▁mount	-5122
▁arbeit	-5123
▁sprach	-5124
▁Konzept	-5125
▁creative	-5126
▁Experiment	-5127
▁Bevölkerung	-5128
ny	-5129
▁Trä	-5130
ified	-5131
▁citi	-5132
▁Ozean	-5133
▁virus	-5134
schluss	-5135
▁democracy	-5136
▁gleichzeitig	-5137
rom	-5138
icle	-5139
▁nahe	-5140
▁track	-5141
▁zuerst	-5142
▁Monaten	-5143
▁ständig	-5144
▁totally	-5145
merksamkeit	-5146
viel	-5147
▁grew	-5148
▁Kreat	-5149
▁birth	-5150
▁finde	-5151
▁großer	-5152
▁spirit	-5153
indungen	-5154
▁connected	-5155
▁richtigen	-5156
öp	-5157
arf	-5158
eit	-5159
▁swe	-5160
▁sodass	-5161
▁bedeuten	-5162
▁particip	-5163
▁geschieht	-5164
cen	-5165
gem	-5166
▁Uhr	-5167
▁fam	-5168
▁Most	-5169
▁song	-5170
▁verh	-5171
▁wild	-5172
▁Where	-5173
▁ernst	-5174
▁terror	-5175
▁emotion	-5176
▁continue	-5177
▁Oberfläche	-5178
▁Aufmerksamkeit	-5179
▁gek	-5180
▁inf	-5181
▁Lauf	-5182
▁crazy	-5183
▁altern	-5184
▁absolut	-5185
▁boy	-5186
▁Druck	-5187
▁cross	-5188
▁Bücher	-5189
▁colleag	-5190
▁Bewusstsein	-5191
glie	-5192
ickt	-5193
like	-5194
osen	-5195
ramm	-5196
▁Tro	-5197
▁hot	-5198
▁Terr	-5199
▁Islam	-5200
▁individuals	-5201
igr	-5202
▁capt	-5203
▁choose	-5204
▁nobody	-5205
▁Schulen	-5206
▁passion	-5207
▁wussten	-5208
▁Reaktion	-5209
▁families	-5210
▁lok	-5211
▁Even	-5212
▁Gespr	-5213
▁immed	-5214
▁urban	-5215
▁watching	-5216
▁everywhere	-5217
zusch	-5218
▁Ress	-5219
▁clin	-5220
▁dete	-5221
▁affect	-5222
▁notice	-5223
▁complic	-5224
▁projects	-5225
▁conversation	-5226
zies	-5227
▁trees	-5228
ikation	-5229
▁verbra	-5230
▁voller	-5231
▁ähnlich	-5232
▁security	-5233
▁passierte	-5234
▁verlassen	-5235
▁perspective	-5236
▁TV	-5237
erei	-5238
▁Büro	-5239
▁Ding	-5240
▁Seiten	-5241
enschaft	-5242
▁versuchte	-5243
ami	-5244
ikal	-5245
▁Mehr	-5246
▁nein	-5247
▁ihres	-5248
▁Twitter	-5249
▁Pflanzen	-5250
▁chemical	-5251
▁materials	-5252
abl	-5253
ror	-5254
▁ca	-5255
ered	-5256
inken	-5257
▁Bill	-5258
wissen	-5259
underte	-5260
▁Krankheiten	-5261
▁Entscheidung	-5262
the	-5263
zer	-5264
▁Are	-5265
Music	-5266
▁Baum	-5267
icient	-5268
▁dynam	-5269
▁waste	-5270
▁doctor	-5271
▁Grenzen	-5272
▁conflict	-5273
▁treatment	-5274
▁eventually	-5275
▁tru	-5276
ounds	-5277
ativen	-5278
▁Traum	-5279
▁worse	-5280
▁sitzen	-5281
aria	-5282
isis	-5283
merz	-5284
▁lose	-5285
▁cause	-5286
▁games	-5287
hington	-5288
peratur	-5289
▁inform	-5290
▁hospital	-5291
▁Medikamen	-5292
▁including	-5293
edom	-5294
ünft	-5295
▁Typ	-5296
▁gas	-5297
front	-5298
▁rele	-5299
altung	-5300
unately	-5301
▁arbeitete	-5302
▁extremely	-5303
▁geschrieben	-5304
etze	-5305
letz	-5306
▁Act	-5307
▁vac	-5308
annen	-5309
iegen	-5310
igens	-5311
▁Iran	-5312
▁Mark	-5313
▁Wand	-5314
▁empf	-5315
▁check	-5316
▁shown	-5317
▁bewegt	-5318
▁return	-5319
▁Vergangen	-5320
▁Vereinigten	-5321
ypen	-5322
▁400	-5323
▁kaum	-5324
▁adult	-5325
▁tä	-5326
ützt	-5327
▁häuf	-5328
▁jobs	-5329
▁bleibt	-5330
▁bodies	-5331
▁college	-5332
▁$	-5333
ios	-5334
atte	-5335
▁Asp	-5336
▁ine	-5337
▁sil	-5338
eless	-5339
▁nied	-5340
fach	-5341
spiel	-5342
▁stär	-5343
ustand	-5344
▁Frank	-5345
▁carry	-5346
▁allowed	-5347
▁fantast	-5348
▁Washington	-5349
▁beobachten	-5350
ta	-5351
ohl	-5352
ächen	-5353
▁push	-5354
▁Eines	-5355
▁großes	-5356
▁private	-5357
▁obviously	-5358
win	-5359
ragt	-5360
Musik	-5361
▁labor	-5362
▁loved	-5363
▁movie	-5364
▁decision	-5365
▁response	-5366
▁conditions	-5367
hem	-5368
abel	-5369
ires	-5370
iegel	-5371
▁fell	-5372
ourcen	-5373
pected	-5374
▁brill	-5375
▁näher	-5376
▁taught	-5377
▁gesprochen	-5378
deck	-5379
gere	-5380
obil	-5381
▁mat	-5382
▁rid	-5383
aunch	-5384
▁Baby	-5385
tember	-5386
▁tells	-5387
▁killed	-5388
izations	-5389
▁signific	-5390
▁Mex	-5391
▁Gene	-5392
▁goal	-5393
schlag	-5394
▁finding	-5395
▁Universität	-5396
sm	-5397
lei	-5398
mals	-5399
▁Who	-5400
▁tar	-5401
ffekt	-5402
▁Wohl	-5403
▁mine	-5404
▁skin	-5405
ements	-5406
▁kosten	-5407
▁nation	-5408
▁Versuch	-5409
▁address	-5410
▁Personen	-5411
▁suddenly	-5412
▁Vergangenheit	-5413
atory	-5414
▁Himm	-5415
▁Tagen	-5416
▁Erinner	-5417
▁Go	-5418
afen	-5419
▁Fil	-5420
führen	-5421
▁deine	-5422
▁bilden	-5423
▁brains	-5424
▁plants	-5425
▁region	-5426
▁sequen	-5427
▁ansehen	-5428
▁Sw	-5429
ller	-5430
pidem	-5431
▁gehe	-5432
▁task	-5433
▁collabor	-5434
▁Col	-5435
▁Hin	-5436
▁Los	-5437
▁late	-5438
▁disapp	-5439
▁faster	-5440
▁forest	-5441
▁erzählt	-5442
▁richtige	-5443
▁bestimmten	-5444
iced	-5445
ured	-5446
▁150	-5447
▁Any	-5448
▁Fle	-5449
▁bur	-5450
▁erg	-5451
▁Sohn	-5452
▁list	-5453
▁mist	-5454
▁Können	-5455
▁manche	-5456
▁models	-5457
▁Kollegen	-5458
▁emotional	-5459
▁somewhere	-5460
ägt	-5461
▁Pal	-5462
▁kur	-5463
▁kompl	-5464
ossible	-5465
▁Geheim	-5466
▁concern	-5467
▁excited	-5468
▁einzelne	-5469
▁thousand	-5470
▁recognize	-5471
▁essentially	-5472
▁extraordinary	-5473
pre	-5474
▁NA	-5475
etic	-5476
ables	-5477
▁deut	-5478
▁prakt	-5479
▁stick	-5480
▁strug	-5481
▁appear	-5482
▁transl	-5483
▁daughter	-5484
▁teachers	-5485
▁verlieren	-5486
▁meth	-5487
▁höher	-5488
▁natür	-5489
▁older	-5490
▁truly	-5491
▁Regeln	-5492
▁Evolution	-5493
Er	-5494
ffe	-5495
prü	-5496
üss	-5497
uern	-5498
erman	-5499
▁Erst	-5500
▁Präs	-5501
▁wait	-5502
▁Today	-5503
▁Einfluss	-5504
▁Beispiele	-5505
ued	-5506
cape	-5507
krie	-5508
▁Bank	-5509
▁Haut	-5510
▁Firmen	-5511
▁Vortrag	-5512
▁überras	-5513
▁Kontrolle	-5514
▁zumindest	-5515
▁gearbeitet	-5516
▁offensichtlich	-5517
ery	-5518
unt	-5519
zwe	-5520
▁oh	-5521
▁Erk	-5522
▁Priv	-5523
▁Konfl	-5524
▁Worte	-5525
▁lands	-5526
ruption	-5527
▁Stelle	-5528
▁employ	-5529
▁stress	-5530
▁objects	-5531
Es	-5532
Re	-5533
uk	-5534
iqu	-5535
mon	-5536
tes	-5537
arian	-5538
bauen	-5539
blich	-5540
rasch	-5541
ulate	-5542
▁Test	-5543
▁bunch	-5544
ilities	-5545
osystem	-5546
▁pieces	-5547
▁happiness	-5548
▁interview	-5549
▁ö	-5550
ufe	-5551
▁cat	-5552
orfen	-5553
teten	-5554
▁2000	-5555
▁above	-5556
▁analys	-5557
▁source	-5558
legenheit	-5559
▁medicine	-5560
▁standing	-5561
gy	-5562
▁poll	-5563
▁Franc	-5564
▁Those	-5565
▁quant	-5566
▁trial	-5567
zeichnet	-5568
▁Spezies	-5569
▁hundert	-5570
üll	-5571
räfte	-5572
▁Rich	-5573
▁gern	-5574
▁wann	-5575
ournal	-5576
▁ended	-5577
▁usually	-5578
▁increase	-5579
Wie	-5580
▁Bot	-5581
▁Kern	-5582
▁Terror	-5583
▁mental	-5584
ständnis	-5585
▁introdu	-5586
▁bemerken	-5587
▁nachzudenken	-5588
▁MI	-5589
▁East	-5590
▁traf	-5591
ribute	-5592
▁Orten	-5593
▁Morgen	-5594
windigkeit	-5595
▁buildings	-5596
▁Mond	-5597
reiten	-5598
▁Feuer	-5599
▁Leist	-5600
▁report	-5601
▁spezie	-5602
pfl	-5603
wür	-5604
ört	-5605
ckte	-5606
▁luck	-5607
▁erschein	-5608
ils	-5609
▁Erf	-5610
▁code	-5611
▁Kampf	-5612
▁Gefäng	-5613
▁police	-5614
▁princi	-5615
▁massive	-5616
▁teacher	-5617
▁successful	-5618
▁Arzt	-5619
▁Wald	-5620
▁tree	-5621
▁alive	-5622
▁lines	-5623
▁Chance	-5624
▁beings	-5625
▁indeed	-5626
▁minute	-5627
▁points	-5628
▁schreck	-5629
▁somehow	-5630
▁training	-5631
▁trotzdem	-5632
la	-5633
▁Po	-5634
mark	-5635
▁hab	-5636
▁prec	-5637
▁Somet	-5638
▁afford	-5639
▁discuss	-5640
▁position	-5641
▁Innovation	-5642
▁Wirklichkeit	-5643
ley	-5644
stet	-5645
▁Dorf	-5646
ierter	-5647
▁Regen	-5648
▁earth	-5649
▁morgen	-5650
▁retten	-5651
▁respond	-5652
▁activity	-5653
▁products	-5654
kon	-5655
▁Spaß	-5656
▁kept	-5657
▁winz	-5658
▁graph	-5659
ustrial	-5660
▁allows	-5661
▁launch	-5662
▁Nachricht	-5663
▁anschauen	-5664
▁Verantwort	-5665
itte	-5666
▁Look	-5667
▁selt	-5668
▁wife	-5669
▁Israel	-5670
▁crisis	-5671
▁Software	-5672
▁möglichen	-5673
▁Ag	-5674
amin	-5675
▁Disk	-5676
▁coun	-5677
▁vert	-5678
▁domin	-5679
▁keiner	-5680
▁remark	-5681
▁doctors	-5682
▁erzeugen	-5683
▁complicated	-5684
▁»	-5685
▁Sm	-5686
▁sn	-5687
plex	-5688
▁Port	-5689
ausend	-5690
▁denkt	-5691
▁ignor	-5692
▁nenne	-5693
tex	-5694
lier	-5695
▁fit	-5696
▁nut	-5697
onent	-5698
▁sand	-5699
▁town	-5700
▁Hände	-5701
▁Gesetz	-5702
▁führte	-5703
▁automat	-5704
▁humanity	-5705
▁einzelnen	-5706
upp	-5707
pers	-5708
▁Tas	-5709
▁Sign	-5710
▁site	-5711
icians	-5712
▁forms	-5713
▁erklär	-5714
▁erlaubt	-5715
▁gesamten	-5716
▁Bakterien	-5717
▁impossible	-5718
▁«	-5719
imb	-5720
▁Beziehungen	-5721
▁organization	-5722
po	-5723
▁bal	-5724
▁doc	-5725
▁etc	-5726
iately	-5727
▁Galax	-5728
▁sorts	-5729
▁fertig	-5730
▁fühlte	-5731
▁larger	-5732
▁zeigte	-5733
▁Schüler	-5734
▁provide	-5735
▁aussieht	-5736
▁gewinnen	-5737
▁programm	-5738
▁Amerikaner	-5739
5,	-5740
ala	-5741
ham	-5742
lern	-5743
▁rot	-5744
ctions	-5745
stoffe	-5746
▁rights	-5747
ec	-5748
ser	-5749
klär	-5750
seit	-5751
▁echt	-5752
▁Gerät	-5753
▁Schön	-5754
▁jungen	-5755
▁reading	-5756
▁solchen	-5757
▁studies	-5758
▁patterns	-5759
fs	-5760
hes	-5761
pts	-5762
▁Mr	-5763
falt	-5764
▁Ern	-5765
änden	-5766
▁card	-5767
ensive	-5768
▁dahin	-5769
▁lower	-5770
▁Gebiet	-5771
▁Nummer	-5772
▁anymore	-5773
▁Freiheit	-5774
▁painting	-5775
▁straight	-5776
▁Erwachsen	-5777
omm	-5778
▁Ser	-5779
▁amp	-5780
▁bab	-5781
genie	-5782
äusch	-5783
▁Sand	-5784
though	-5785
▁cases	-5786
▁gewalt	-5787
▁philos	-5788
▁secret	-5789
▁symbol	-5790
▁genetic	-5791
▁healthy	-5792
▁Ergebnisse	-5793
aat	-5794
amt	-5795
▁kr	-5796
nder	-5797
ählt	-5798
▁Kong	-5799
▁cold	-5800
▁lebt	-5801
▁phen	-5802
▁Damit	-5803
▁Monat	-5804
▁Invest	-5805
▁effort	-5806
▁Partner	-5807
▁biology	-5808
▁erfahren	-5809
▁bestimmte	-5810
ara	-5811
joy	-5812
uls	-5813
▁Zwei	-5814
▁cook	-5815
▁früh	-5816
machen	-5817
isation	-5818
▁bacteria	-5819
▁electricity	-5820
▁architecture	-5821
isms	-5822
▁kre	-5823
▁Gefü	-5824
▁burn	-5825
werfen	-5826
▁aktiv	-5827
▁Objekt	-5828
▁gebracht	-5829
▁verbinden	-5830
tr	-5831
elf	-5832
was	-5833
▁Gu	-5834
▁Nä	-5835
▁lag	-5836
holen	-5837
▁abge	-5838
▁upon	-5839
▁galax	-5840
▁hörte	-5841
▁Molekü	-5842
▁Netzwerk	-5843
▁entdecken	-5844
dr	-5845
▁“	-5846
urg	-5847
ulpt	-5848
wers	-5849
aging	-5850
altet	-5851
▁letzt	-5852
▁author	-5853
▁verfol	-5854
▁village	-5855
▁written	-5856
▁arbeitet	-5857
▁befinden	-5858
▁solutions	-5859
osm	-5860
abet	-5861
dete	-5862
vard	-5863
anter	-5864
drück	-5865
▁Heim	-5866
▁Like	-5867
▁Zeug	-5868
▁Fotos	-5869
▁mention	-5870
▁critical	-5871
▁veröffent	-5872
▁Mathematik	-5873
wart	-5874
ähig	-5875
▁Ord	-5876
▁Zuf	-5877
▁bau	-5878
▁dog	-5879
agine	-5880
itens	-5881
örder	-5882
▁Ball	-5883
▁High	-5884
▁Oper	-5885
▁rain	-5886
▁Außer	-5887
▁aufre	-5888
▁genes	-5889
ruction	-5890
▁einzig	-5891
▁kannst	-5892
▁brother	-5893
▁heutzutage	-5894
0.	-5895
▁las	-5896
▁sad	-5897
gener	-5898
▁harm	-5899
▁inse	-5900
▁Landes	-5901
▁einges	-5902
ingungen	-5903
▁Glauben	-5904
▁express	-5905
▁gefragt	-5906
▁machines	-5907
licherweise	-5908
repr	-5909
▁Kur	-5910
grupp	-5911
▁desp	-5912
▁neun	-5913
▁purp	-5914
iversity	-5915
▁aufgrund	-5916
▁gekommen	-5917
▁Behandlung	-5918
ya	-5919
rem	-5920
over	-5921
itude	-5922
assung	-5923
▁weren	-5924
▁passen	-5925
▁comfort	-5926
▁leisten	-5927
▁decisions	-5928
aup	-5929
▁Bud	-5930
▁Che	-5931
▁inj	-5932
▁desto	-5933
▁Jahres	-5934
▁plastic	-5935
▁demonstr	-5936
▁specific	-5937
▁Americans	-5938
▁Wahrscheinlich	-5939
dom	-5940
▁Gel	-5941
▁Sim	-5942
wenden	-5943
▁hilft	-5944
▁Harvard	-5945
▁increasing	-5946
▁produzieren	-5947
▁intelligence	-5948
pol	-5949
▁Gem	-5950
▁Sep	-5951
erven	-5952
iling	-5953
seits	-5954
▁erhö	-5955
▁port	-5956
▁vern	-5957
▁enjoy	-5958
▁freedom	-5959
▁anywhere	-5960
▁erzählte	-5961
▁globalen	-5962
▁greatest	-5963
▁irgendwo	-5964
▁großartig	-5965
▁Ressourcen	-5966
▁traditional	-5967
abr	-5968
dig	-5969
org	-5970
edia	-5971
eles	-5972
▁Bus	-5973
▁Dis	-5974
▁oxy	-5975
▁Miss	-5976
rochen	-5977
▁Stamm	-5978
▁glass	-5979
▁Ärzte	-5980
▁career	-5981
▁policy	-5982
▁series	-5983
▁dadurch	-5984
▁becoming	-5985
fortunately	-5986
▁öffentlichen	-5987
ibr	-5988
time	-5989
▁pen	-5990
▁web	-5991
▁wes	-5992
▁fine	-5993
aterie	-5994
▁Ebene	-5995
▁läuft	-5996
▁kommun	-5997
▁England	-5998
▁Frieden	-5999
▁earlier	-6000
▁service	-6001
▁versuche	-6002
▁listening	-6003
ius	-6004
glicht	-6005
vented	-6006
▁Liebl	-6007
▁Second	-6008
hm	-6009
buch	-6010
hlten	-6011
▁rund	-6012
▁throw	-6013
wendung	-6014
▁remind	-6015
▁Theorie	-6016
▁military	-6017
▁phenomen	-6018
▁September	-6019
ids	-6020
mäß	-6021
▁Ker	-6022
▁Mut	-6023
▁hop	-6024
▁rep	-6025
ender	-6026
kommt	-6027
▁alte	-6028
▁sele	-6029
iments	-6030
istent	-6031
reitet	-6032
▁attra	-6033
▁drink	-6034
erences	-6035
▁School	-6036
ilometer	-6037
▁Manchmal	-6038
▁einander	-6039
key	-6040
▁35	-6041
mand	-6042
olly	-6043
riere	-6044
stellt	-6045
▁floor	-6046
▁spect	-6047
▁decades	-6048
▁intelle	-6049
▁schützen	-6050
▁untersuchen	-6051
hel	-6052
▁Hü	-6053
ilet	-6054
leist	-6055
▁hält	-6056
▁Einer	-6057
▁board	-6058
▁prison	-6059
▁slight	-6060
▁Architektur	-6061
▁inn	-6062
auber	-6063
▁Hall	-6064
▁Phil	-6065
▁foss	-6066
▁nerv	-6067
ieties	-6068
zahlen	-6069
imately	-6070
▁version	-6071
▁ermöglicht	-6072
▁Regierungen	-6073
ahmen	-6074
antic	-6075
board	-6076
▁ther	-6077
astrop	-6078
atives	-6079
▁range	-6080
▁actual	-6081
▁descri	-6082
▁lernte	-6083
zunehmen	-6084
▁standard	-6085
2,	-6086
orben	-6087
sprün	-6088
▁Angel	-6089
▁occur	-6090
▁worry	-6091
▁current	-6092
▁influen	-6093
▁journal	-6094
▁riesige	-6095
▁smaller	-6096
▁Sekunden	-6097
ikt	-6098
ährt	-6099
▁cry	-6100
▁Amaz	-6101
▁cart	-6102
▁isol	-6103
▁roll	-6104
▁Times	-6105
▁Klimaw	-6106
▁Schlaf	-6107
▁clearly	-6108
▁Wachstum	-6109
▁familiar	-6110
▁Vergleich	-6111
▁außerhalb	-6112
iat	-6113
▁Wür	-6114
▁div	-6115
▁ran	-6116
▁whe	-6117
lands	-6118
ameras	-6119
tragen	-6120
▁himself	-6121
▁practice	-6122
▁unmöglich	-6123
▁challenges	-6124
▁Krankenhaus	-6125
▁performance	-6126
▁Auswirkungen	-6127
▁Gut	-6128
▁sky	-6129
▁sus	-6130
hrten	-6131
▁Unser	-6132
▁gradu	-6133
ierende	-6134
▁German	-6135
▁waiting	-6136
▁willing	-6137
▁Funktion	-6138
▁institutions	-6139
▁unterstützen	-6140
ago	-6141
stä	-6142
ding	-6143
omit	-6144
ildet	-6145
zimmer	-6146
ualität	-6147
▁Geburt	-6148
▁robots	-6149
▁skills	-6150
▁sowohl	-6151
▁Erstens	-6152
▁Ingenie	-6153
▁describ	-6154
▁neurons	-6155
Sie	-6156
afr	-6157
same	-6158
scht	-6159
▁MIT	-6160
▁imm	-6161
▁pan	-6162
▁ille	-6163
▁Fluss	-6164
▁final	-6165
schiede	-6166
▁George	-6167
▁Gründe	-6168
▁Lösungen	-6169
▁citizens	-6170
▁throughout	-6171
▁verstanden	-6172
▁Erfahrungen	-6173
ino	-6174
▁Wä	-6175
hang	-6176
iding	-6177
kelet	-6178
äuser	-6179
▁Wohn	-6180
▁lief	-6181
▁aufzu	-6182
▁stars	-6183
gesetzt	-6184
unächst	-6185
▁entschieden	-6186
rifft	-6187
▁page	-6188
▁Prote	-6189
▁store	-6190
▁stren	-6191
▁myster	-6192
▁zweiten	-6193
▁entdeckt	-6194
▁gestellt	-6195
▁dangerous	-6196
▁babies	-6197
▁bisher	-6198
▁warten	-6199
▁wenige	-6200
▁Imagine	-6201
▁Journal	-6202
▁physics	-6203
▁bestehen	-6204
▁Maschinen	-6205
will	-6206
lecht	-6207
▁Arab	-6208
utzung	-6209
▁Formen	-6210
▁Lernen	-6211
▁accept	-6212
▁rechts	-6213
imension	-6214
▁einzigen	-6215
▁expensive	-6216
No	-6217
▁Lö	-6218
etzte	-6219
krank	-6220
redit	-6221
▁molec	-6222
▁price	-6223
▁Muslim	-6224
▁messen	-6225
▁erleben	-6226
▁statist	-6227
▁normalerweise	-6228
ae	-6229
▁Sä	-6230
icon	-6231
riff	-6232
acity	-6233
ained	-6234
ütter	-6235
▁Linie	-6236
▁Which	-6237
▁Polize	-6238
▁weight	-6239
▁herausfinden	-6240
zi	-6241
ari	-6242
äte	-6243
▁Tom	-6244
▁win	-6245
reten	-6246
▁Vier	-6247
▁west	-6248
▁zufä	-6249
ferenz	-6250
▁taten	-6251
▁forget	-6252
▁levels	-6253
▁runter	-6254
▁Entdeck	-6255
▁Nahrung	-6256
▁strange	-6257
▁geschehen	-6258
▁großartige	-6259
pend	-6260
▁Mir	-6261
▁Kons	-6262
passen	-6263
reprene	-6264
▁commit	-6265
▁fallen	-6266
▁fascin	-6267
▁please	-6268
▁shared	-6269
ervation	-6270
▁Systeme	-6271
▁Telefon	-6272
▁sammeln	-6273
▁diejenigen	-6274
Hey	-6275
▁veh	-6276
orien	-6277
steht	-6278
▁jump	-6279
▁shot	-6280
▁angef	-6281
▁Himmel	-6282
▁Indian	-6283
▁calcul	-6284
▁famous	-6285
▁honest	-6286
▁spielt	-6287
▁greater	-6288
▁services	-6289
ieß	-6290
▁Ak	-6291
ceed	-6292
pret	-6293
▁Kör	-6294
▁jud	-6295
auern	-6296
essor	-6297
ilien	-6298
schirm	-6299
stelle	-6300
▁Ident	-6301
▁values	-6302
▁mehrere	-6303
▁Zeitpunkt	-6304
leb	-6305
ften	-6306
trag	-6307
attle	-6308
ected	-6309
▁Inse	-6310
▁wund	-6311
ochter	-6312
▁Brust	-6313
▁Farbe	-6314
▁Regel	-6315
▁content	-6316
▁seconds	-6317
▁45	-6318
hnte	-6319
▁ord	-6320
▁Norm	-6321
▁Bezug	-6322
mitteln	-6323
▁Einzel	-6324
▁helped	-6325
▁walked	-6326
▁ehrlich	-6327
▁erinnere	-6328
▁Organisation	-6329
9,	-6330
elle	-6331
ingu	-6332
ibiot	-6333
platz	-6334
werke	-6335
schuld	-6336
▁ahead	-6337
▁berüh	-6338
▁encou	-6339
▁respect	-6340
▁immediately	-6341
ady	-6342
aim	-6343
ays	-6344
▁Hy	-6345
alia	-6346
ancy	-6347
emand	-6348
▁Fakt	-6349
▁Gold	-6350
▁antw	-6351
▁cele	-6352
▁kürz	-6353
▁costs	-6354
▁match	-6355
barkeit	-6356
teilung	-6357
▁selten	-6358
▁unique	-6359
▁handelt	-6360
▁erwarten	-6361
▁Institution	-6362
▁relationships	-6363
ulf	-6364
uzz	-6365
mend	-6366
▁types	-6367
zugehen	-6368
▁Stunde	-6369
▁Gehirns	-6370
▁Methode	-6371
▁driving	-6372
▁effective	-6373
ray	-6374
yle	-6375
▁Ere	-6376
stück	-6377
▁hell	-6378
▁math	-6379
▁Sinne	-6380
▁Westen	-6381
▁wählen	-6382
▁Another	-6383
▁Francisco	-6384
▁Interesse	-6385
▁wundersch	-6386
▁interessante	-6387
iles	-6388
önen	-6389
▁deb	-6390
▁unc	-6391
▁Kurz	-6392
▁höch	-6393
▁catch	-6394
▁laugh	-6395
▁liber	-6396
▁unver	-6397
▁Beginn	-6398
▁explor	-6399
▁surger	-6400
▁temper	-6401
▁Western	-6402
▁Flugzeug	-6403
▁politics	-6404
▁religion	-6405
ux	-6406
osh	-6407
urm	-6408
▁Eth	-6409
▁Nor	-6410
aries	-6411
▁Name	-6412
▁Wege	-6413
▁ausz	-6414
▁hart	-6415
▁laws	-6416
▁weap	-6417
▁Plast	-6418
▁beauty	-6419
▁frustr	-6420
▁mobile	-6421
▁website	-6422
▁neighborhood	-6423
lose	-6424
reche	-6425
▁legs	-6426
▁race	-6427
▁offic	-6428
▁surve	-6429
▁dritte	-6430
▁meeting	-6431
▁argument	-6432
▁irgendein	-6433
▁Atl	-6434
▁sam	-6435
▁Höhe	-6436
▁rise	-6437
▁Schne	-6438
▁forth	-6439
▁hielt	-6440
ätzlich	-6441
▁behaup	-6442
▁betrachtet	-6443
▁geschaffen	-6444
▁Veränderungen	-6445
▁Dre	-6446
▁cru	-6447
angel	-6448
endes	-6449
▁rand	-6450
▁Zivil	-6451
▁Kamera	-6452
▁Museum	-6453
▁broken	-6454
▁decide	-6455
arbeiter	-6456
▁choices	-6457
▁dasselbe	-6458
▁diseases	-6459
▁heutigen	-6460
▁fantastic	-6461
ael	-6462
▁Gal	-6463
▁Two	-6464
itten	-6465
▁Herr	-6466
achtet	-6467
sweise	-6468
▁brand	-6469
▁Artikel	-6470
▁Richard	-6471
▁Tochter	-6472
▁herunter	-6473
▁terrible	-6474
▁Gefängnis	-6475
It	-6476
▁km	-6477
▁Dan	-6478
▁hus	-6479
ießen	-6480
stütz	-6481
▁Many	-6482
▁Rand	-6483
▁leid	-6484
▁male	-6485
▁Sport	-6486
▁whose	-6487
▁Jungen	-6488
▁decade	-6489
▁profit	-6490
▁atmosph	-6491
▁Antworten	-6492
▁therefore	-6493
▁connection	-6494
▁durchschnitt	-6495
RI	-6496
für	-6497
zähl	-6498
▁Bru	-6499
▁Ton	-6500
▁fac	-6501
▁unf	-6502
ctive	-6503
▁Bang	-6504
▁Hirn	-6505
▁Pass	-6506
▁apply	-6507
▁legal	-6508
▁abstra	-6509
▁Ordnung	-6510
▁entweder	-6511
▁schlechte	-6512
8,	-6513
ibe	-6514
▁Bis	-6515
▁Sil	-6516
▁NASA	-6517
▁Paul	-6518
▁hair	-6519
nungen	-6520
▁akzept	-6521
▁selben	-6522
▁Nigeria	-6523
▁gedacht	-6524
▁production	-6525
uc	-6526
hme	-6527
vit	-6528
aker	-6529
ends	-6530
▁Wik	-6531
anced	-6532
fraid	-6533
kraft	-6534
▁yeah	-6535
aurant	-6536
▁Bühne	-6537
▁erfor	-6538
▁magic	-6539
▁reich	-6540
▁Zeiten	-6541
▁befindet	-6542
▁Intelligen	-6543
▁Verständnis	-6544
lös	-6545
spe	-6546
atic	-6547
▁Öff	-6548
▁jene	-6549
▁Think	-6550
sichtig	-6551
▁Finanz	-6552
▁afraid	-6553
▁colleagues	-6554
esellschaften	-6555
Ja	-6556
▁Bo	-6557
▁Pak	-6558
▁vul	-6559
phone	-6560
▁uner	-6561
▁Amazon	-6562
▁method	-6563
▁useful	-6564
▁improve	-6565
▁Californ	-6566
▁teaching	-6567
▁direction	-6568
▁experiences	-6569
▁environmental	-6570
▁amerikanischen	-6571
bü	-6572
▁2.	-6573
▁75	-6574
▁Mid	-6575
▁grü	-6576
▁wün	-6577
alent	-6578
ellen	-6579
essed	-6580
iated	-6581
▁Berg	-6582
▁vict	-6583
ologen	-6584
▁Jedes	-6585
▁mächt	-6586
▁artist	-6587
▁voraus	-6588
▁survive	-6589
telligent	-6590
▁übrigens	-6591
▁Überleben	-6592
▁organizations	-6593
hib	-6594
hers	-6595
reib	-6596
▁Con	-6597
▁hom	-6598
▁Noch	-6599
▁crow	-6600
▁loss	-6601
änomen	-6602
▁Tisch	-6603
▁Wesen	-6604
▁hinge	-6605
▁Darwin	-6606
▁female	-6607
▁vertra	-6608
▁Atmosph	-6609
▁Vorstell	-6610
▁algorith	-6611
▁verrückt	-6612
▁getroffen	-6613
öse	-6614
pack	-6615
round	-6616
wärts	-6617
▁shap	-6618
▁zero	-6619
▁dance	-6620
▁fällt	-6621
▁radio	-6622
▁Nehmen	-6623
▁Schwar	-6624
▁ebenso	-6625
▁effekt	-6626
▁Individ	-6627
▁popular	-6628
▁schicken	-6629
▁vollständ	-6630
▁überleben	-6631
▁grundlegen	-6632
▁engineering	-6633
▁Jahrhunderts	-6634
kur	-6635
ärm	-6636
cies	-6637
▁Ext	-6638
▁cust	-6639
▁gene	-6640
selben	-6641
▁Liste	-6642
▁Zelle	-6643
▁dauer	-6644
▁telev	-6645
▁celebr	-6646
▁expand	-6647
▁various	-6648
ikanischen	-6649
▁verbringen	-6650
▁bat	-6651
▁Glob	-6652
▁uses	-6653
▁posit	-6654
▁Manche	-6655
▁Schutz	-6656
▁flying	-6657
▁random	-6658
▁wealth	-6659
▁Instead	-6660
▁Religion	-6661
▁possibly	-6662
▁entreprene	-6663
▁Medikamente	-6664
▁governments	-6665
▁konzentrieren	-6666
▁Co	-6667
aste	-6668
itär	-6669
wise	-6670
▁Text	-6671
▁assoc	-6672
▁relev	-6673
▁Drogen	-6674
▁Freude	-6675
▁spricht	-6676
▁understood	-6677
▁Fortschritt	-6678
seh	-6679
▁Ru	-6680
aced	-6681
wohn	-6682
▁sou	-6683
▁Auge	-6684
▁ließ	-6685
▁Werte	-6686
haltung	-6687
▁improv	-6688
▁mostly	-6689
▁nahmen	-6690
▁Männern	-6691
▁answers	-6692
▁effects	-6693
▁stopped	-6694
▁welcher	-6695
▁invented	-6696
ih	-6697
alle	-6698
iete	-6699
stag	-6700
▁äuß	-6701
dings	-6702
▁Cent	-6703
▁Cong	-6704
▁Prot	-6705
▁gele	-6706
▁hall	-6707
▁Colle	-6708
▁gutes	-6709
▁closer	-6710
▁commer	-6711
▁häufig	-6712
▁saving	-6713
gebracht	-6714
gefunden	-6715
sprechen	-6716
▁speaking	-6717
▁Schlüssel	-6718
▁außergewöhn	-6719
▁Verantwortung	-6720
7,	-6721
War	-6722
fel	-6723
brit	-6724
ners	-6725
▁Beh	-6726
arter	-6727
bewer	-6728
enster	-6729
ildern	-6730
▁Junge	-6731
▁danke	-6732
▁Punkte	-6733
▁invent	-6734
▁Erkennt	-6735
▁install	-6736
frastruct	-6737
▁Freunden	-6738
▁jemandem	-6739
▁consequen	-6740
▁financial	-6741
▁verkaufen	-6742
▁Gesundheits	-6743
▁Ok	-6744
üsse	-6745
▁Kir	-6746
▁Kol	-6747
▁Neu	-6748
▁Verfü	-6749
▁guter	-6750
▁gewiss	-6751
▁Gefühle	-6752
▁Einstein	-6753
▁enormous	-6754
▁behandeln	-6755
▁societies	-6756
▁California	-6757
How	-6758
äst	-6759
deut	-6760
▁End	-6761
▁boys	-6762
▁hous	-6763
ennung	-6764
▁Haben	-6765
isierte	-6766
▁Herzen	-6767
▁Meeres	-6768
▁Nerven	-6769
▁determ	-6770
▁seemed	-6771
▁summer	-6772
▁vorbei	-6773
▁Städten	-6774
▁atmosphere	-6775
Te	-6776
ify	-6777
anne	-6778
rees	-6779
folge	-6780
ufact	-6781
anning	-6782
istenz	-6783
▁assum	-6784
▁fühlt	-6785
▁habit	-6786
▁worst	-6787
▁Risiko	-6788
▁Worten	-6789
▁income	-6790
▁following	-6791
▁vergleich	-6792
▁creativity	-6793
▁herstellen	-6794
rt	-6795
ads	-6796
▁Etw	-6797
▁Mär	-6798
andid	-6799
gency	-6800
stadt	-6801
▁Grad	-6802
▁Your	-6803
▁plat	-6804
▁concl	-6805
mutlich	-6806
standen	-6807
▁double	-6808
▁square	-6809
▁target	-6810
▁instance	-6811
imensional	-6812
▁Schönheit	-6813
▁einfachen	-6814
▁Unterstütz	-6815
▁Gelegenheit	-6816
▁infrastruct	-6817
asi	-6818
ibl	-6819
osc	-6820
wick	-6821
▁Sub	-6822
gründ	-6823
raten	-6824
▁Arme	-6825
▁hört	-6826
▁lack	-6827
heimer	-6828
▁feels	-6829
inosaur	-6830
▁Altern	-6831
▁Bedürf	-6832
▁Ereign	-6833
▁geschah	-6834
▁existiert	-6835
▁remarkable	-6836
Ge	-6837
Le	-6838
sum	-6839
aign	-6840
azine	-6841
mögen	-6842
▁Ther	-6843
▁below	-6844
▁echte	-6845
zusagen	-6846
▁Street	-6847
▁Teilen	-6848
▁beantw	-6849
▁directly	-6850
▁Eigenschaften	-6851
▁22	-6852
ammt	-6853
ffic	-6854
oßen	-6855
spra	-6856
▁ext	-6857
▁Abend	-6858
▁trade	-6859
ichtbar	-6860
zeichen	-6861
▁Biologie	-6862
▁Perspekt	-6863
▁negative	-6864
▁Einkommen	-6865
▁television	-6866
▁wichtigsten	-6867
geht	-6868
used	-6869
▁194	-6870
▁Wid	-6871
▁sal	-6872
ellow	-6873
hause	-6874
izien	-6875
▁erne	-6876
▁sick	-6877
▁vast	-6878
treten	-6879
änderte	-6880
▁although	-6881
▁electron	-6882
maß	-6883
zil	-6884
▁23	-6885
▁Ame	-6886
alley	-6887
ichts	-6888
ringt	-6889
▁dunk	-6890
▁König	-6891
▁hinzu	-6892
▁oppos	-6893
▁raise	-6894
▁synth	-6895
▁Bienen	-6896
▁causes	-6897
▁kulture	-6898
frastruktur	-6899
▁politischen	-6900
erc	-6901
▁GP	-6902
ifft	-6903
▁Arg	-6904
▁Hum	-6905
▁dür	-6906
▁Chic	-6907
▁Komp	-6908
▁Nähe	-6909
▁mitt	-6910
▁paid	-6911
▁Beruf	-6912
▁birds	-6913
▁print	-6914
▁shark	-6915
▁anyway	-6916
▁prevent	-6917
▁cultural	-6918
▁pressure	-6919
▁Charakter	-6920
▁condition	-6921
iens	-6922
▁His	-6923
▁fil	-6924
▁tom	-6925
lieben	-6926
▁komme	-6927
▁destro	-6928
▁supply	-6929
▁eigenes	-6930
▁kämpfen	-6931
▁noticed	-6932
▁erfunden	-6933
▁Industrie	-6934
▁wunderbar	-6935
heben	-6936
ypoth	-6937
▁dank	-6938
▁metap	-6939
▁Wunder	-6940
▁gather	-6941
▁refuge	-6942
ierenden	-6943
▁Statist	-6944
▁endlich	-6945
▁explore	-6946
▁capacity	-6947
▁emotions	-6948
▁programs	-6949
▁published	-6950
▁beeinflusst	-6951
Al	-6952
▁Mö	-6953
▁Sl	-6954
▁ep	-6955
hyth	-6956
rech	-6957
▁Big	-6958
ights	-6959
mmern	-6960
▁Gewe	-6961
▁Lehr	-6962
▁Seit	-6963
erecht	-6964
▁analy	-6965
tersuch	-6966
▁Finger	-6967
▁Tieren	-6968
▁senten	-6969
▁states	-6970
▁trouble	-6971
▁Gemeinde	-6972
▁profound	-6973
▁Präsident	-6974
4,	-6975
Wenn	-6976
▁Jul	-6977
▁fat	-6978
▁zug	-6979
aling	-6980
▁Mart	-6981
▁wider	-6982
▁Inform	-6983
▁biological	-6984
▁Kreativität	-6985
▁erstaunlich	-6986
▁unglaubliche	-6987
Un	-6988
▁mix	-6989
▁Alex	-6990
▁Jobs	-6991
▁Sold	-6992
▁base	-6993
▁fuel	-6994
▁rule	-6995
▁tiss	-6996
▁Instr	-6997
▁Steve	-6998
▁genutzt	-6999
▁globale	-7000
Nein	-7001
▁Rep	-7002
ählen	-7003
▁From	-7004
▁rede	-7005
▁verme	-7006
aschine	-7007
geführt	-7008
ologist	-7009
▁frühen	-7010
▁langen	-7011
▁speech	-7012
▁instrum	-7013
▁members	-7014
zul	-7015
▁üb	-7016
izes	-7017
▁Alz	-7018
▁afr	-7019
aptop	-7020
▁blau	-7021
▁Sommer	-7022
▁Charles	-7023
▁spreche	-7024
chnologie	-7025
▁Projekte	-7026
▁slightly	-7027
▁ebenfalls	-7028
▁scientist	-7029
▁differently	-7030
MS	-7031
hi	-7032
bet	-7033
hner	-7034
iell	-7035
ikas	-7036
▁hyd	-7037
▁nöt	-7038
gaben	-7039
▁Gang	-7040
▁drop	-7041
▁lust	-7042
▁James	-7043
▁aware	-7044
▁Ahnung	-7045
▁Jugend	-7046
▁easier	-7047
▁sobald	-7048
▁College	-7049
▁Komplex	-7050
▁Schrift	-7051
▁purpose	-7052
▁Designer	-7053
▁nachhalt	-7054
▁differences	-7055
,5	-7056
otel	-7057
▁Sam	-7058
▁Dort	-7059
▁Kein	-7060
▁Mitt	-7061
▁gift	-7062
orgung	-7063
▁Great	-7064
▁dying	-7065
▁funny	-7066
▁seien	-7067
minister	-7068
▁helping	-7069
▁brauchte	-7070
geschichte	-7071
▁industrial	-7072
urb	-7073
▁Pa	-7074
iest	-7075
lege	-7076
weil	-7077
▁bud	-7078
isted	-7079
water	-7080
▁tens	-7081
ährung	-7082
▁Handy	-7083
▁Paris	-7084
▁photo	-7085
▁Brazil	-7086
▁applic	-7087
▁intens	-7088
▁satell	-7089
▁trifft	-7090
▁vulner	-7091
▁Michael	-7092
▁knowing	-7093
▁Anderson	-7094
▁Position	-7095
▁identity	-7096
▁unabhäng	-7097
▁einfacher	-7098
▁einzigart	-7099
▁verantwort	-7100
▁communicate	-7101
▁Kommunikation	-7102
Why	-7103
con	-7104
▁Gh	-7105
▁Jan	-7106
Warum	-7107
neten	-7108
äumen	-7109
▁heat	-7110
etzten	-7111
▁slide	-7112
▁visit	-7113
britann	-7114
istisch	-7115
▁highly	-7116
▁nearly	-7117
ulations	-7118
▁Chicago	-7119
▁central	-7120
▁stellten	-7121
▁entstehen	-7122
▁surprising	-7123
▁infrastructure	-7124
edy	-7125
mel	-7126
esis	-7127
uber	-7128
uing	-7129
▁iPh	-7130
▁nar	-7131
▁Hund	-7132
▁Szen	-7133
▁gilt	-7134
▁rare	-7135
▁Bäume	-7136
▁Kreis	-7137
▁Suche	-7138
▁frame	-7139
▁gotten	-7140
▁oxygen	-7141
▁played	-7142
▁seines	-7143
▁öffnen	-7144
▁Einsatz	-7145
▁Kapital	-7146
▁Schluss	-7147
▁Englisch	-7148
▁original	-7149
▁Vertrauen	-7150
▁significant	-7151
kam	-7152
uhl	-7153
athy	-7154
lder	-7155
▁Tex	-7156
▁Vog	-7157
▁rom	-7158
cules	-7159
frage	-7160
rench	-7161
▁koll	-7162
▁poet	-7163
▁shoot	-7164
▁sogen	-7165
▁zeich	-7166
ception	-7167
ktionen	-7168
▁Videos	-7169
▁sexual	-7170
▁Forscher	-7171
▁manufact	-7172
▁transpar	-7173
▁Alzheimer	-7174
▁profession	-7175
▁ermöglichen	-7176
▁temperature	-7177
räge	-7178
▁Tun	-7179
▁fle	-7180
▁tax	-7181
hilfe	-7182
iffen	-7183
setzt	-7184
▁wirk	-7185
ulieren	-7186
▁bezahl	-7187
▁corner	-7188
▁creates	-7189
▁seltsam	-7190
▁ursprün	-7191
▁surround	-7192
▁weiterhin	-7193
▁Leidenschaft	-7194
▁Unterschiede	-7195
Ver	-7196
holt	-7197
kung	-7198
otyp	-7199
▁Pan	-7200
auert	-7201
▁Over	-7202
▁buch	-7203
▁agric	-7204
▁elektr	-7205
▁forces	-7206
▁ancient	-7207
▁extreme	-7208
▁sharing	-7209
▁surgery	-7210
▁Pakistan	-7211
▁Sauerstoff	-7212
Tube	-7213
ippe	-7214
odell	-7215
unsch	-7216
▁Bein	-7217
▁blog	-7218
▁hole	-7219
▁fühle	-7220
▁shock	-7221
▁Karriere	-7222
▁riesigen	-7223
▁experiments	-7224
tle	-7225
▁BG	-7226
aven	-7227
▁ast	-7228
reibt	-7229
▁Wett	-7230
▁held	-7231
▁displ	-7232
▁email	-7233
▁sport	-7234
▁Farben	-7235
▁Schiff	-7236
▁custom	-7237
▁perfekt	-7238
▁tremend	-7239
▁wunderv	-7240
▁Geschäfts	-7241
▁politische	-7242
cel	-7243
lymp	-7244
ampag	-7245
mente	-7246
aining	-7247
▁Insel	-7248
▁Flücht	-7249
▁chines	-7250
▁fangen	-7251
▁window	-7252
ationale	-7253
▁Fenster	-7254
▁Knochen	-7255
▁streets	-7256
▁Produkte	-7257
mmer	-7258
▁Hom	-7259
▁fro	-7260
ipped	-7261
urcht	-7262
▁Frem	-7263
▁krie	-7264
▁Opfer	-7265
auschen	-7266
▁Klasse	-7267
▁Schlag	-7268
▁bought	-7269
▁comput	-7270
▁therap	-7271
ologists	-7272
▁Zustand	-7273
▁evolved	-7274
▁größere	-7275
▁planets	-7276
▁campaign	-7277
▁gegangen	-7278
▁begeister	-7279
▁responsibility	-7280
inct	-7281
mell	-7282
omas	-7283
▁Pil	-7284
ergie	-7285
igend	-7286
▁Quad	-7287
▁nutz	-7288
▁unge	-7289
imente	-7290
▁gaben	-7291
▁manip	-7292
▁easily	-7293
▁Klassen	-7294
▁YouTube	-7295
▁achieve	-7296
▁erzeugt	-7297
▁schlimm	-7298
▁addition	-7299
▁mountain	-7300
▁behandelt	-7301
▁religious	-7302
▁vermutlich	-7303
▁institution	-7304
▁sustainable	-7305
▁Mos	-7306
▁jün	-7307
▁Bost	-7308
▁Life	-7309
▁prep	-7310
▁teen	-7311
schutz	-7312
wohner	-7313
▁Statt	-7314
▁fully	-7315
brechen	-7316
▁demand	-7317
▁presen	-7318
▁spaces	-7319
▁entirely	-7320
▁produced	-7321
▁Lieblings	-7322
▁diversity	-7323
▁reagieren	-7324
▁Atmosphäre	-7325
1,	-7326
nam	-7327
urf	-7328
▁od	-7329
ieso	-7330
odes	-7331
ript	-7332
rupt	-7333
▁kor	-7334
icles	-7335
ubble	-7336
▁Denk	-7337
▁Emot	-7338
▁Ganz	-7339
▁Again	-7340
▁basis	-7341
▁kenne	-7342
▁rapid	-7343
▁Region	-7344
▁Waffen	-7345
▁farmers	-7346
▁Interess	-7347
▁Korallen	-7348
▁Großbritann	-7349
▁intelligent	-7350
▁beeinflussen	-7351
kle	-7352
airs	-7353
iner	-7354
rect	-7355
▁600	-7356
▁Del	-7357
▁Sal	-7358
akten	-7359
eting	-7360
ließt	-7361
schte	-7362
▁Titel	-7363
▁rough	-7364
▁twice	-7365
▁weird	-7366
▁Ansatz	-7367
▁Privat	-7368
ographic	-7369
▁Plastik	-7370
▁missing	-7371
▁Vielfalt	-7372
▁studying	-7373
▁Intelligenz	-7374
▁Klimawandel	-7375
▁Infrastruktur	-7376
▁communication	-7377
▁kontrollieren	-7378
gypt	-7379
▁Mat	-7380
oster	-7381
▁Anst	-7382
▁Lang	-7383
▁absch	-7384
▁agree	-7385
▁motor	-7386
▁dreams	-7387
▁genome	-7388
▁Angeles	-7389
▁Verkehr	-7390
▁matters	-7391
▁mission	-7392
▁Ausdruck	-7393
▁networks	-7394
▁Materialien	-7395
.“	-7396
ses	-7397
▁Lat	-7398
▁Wal	-7399
▁amb	-7400
▁san	-7401
istry	-7402
▁erfü	-7403
▁forg	-7404
▁heav	-7405
▁giant	-7406
▁offer	-7407
▁Physik	-7408
▁focused	-7409
▁Zweitens	-7410
▁betrifft	-7411
▁opposite	-7412
▁Botschaft	-7413
▁Temperatur	-7414
dy	-7415
aid	-7416
▁99	-7417
▁Vö	-7418
▁ök	-7419
angt	-7420
onym	-7421
▁Kann	-7422
▁Stan	-7423
▁auszu	-7424
▁erwäh	-7425
▁parad	-7426
▁10,000	-7427
▁Begriff	-7428
▁despite	-7429
▁fragten	-7430
▁begonnen	-7431
▁Werkzeuge	-7432
▁angefangen	-7433
▁aufgenommen	-7434
▁Durchschnitt	-7435
▁herzustellen	-7436
kn	-7437
▁Get	-7438
▁aid	-7439
krebs	-7440
▁Bere	-7441
▁flex	-7442
▁join	-7443
▁none	-7444
änglich	-7445
▁reduce	-7446
zeichnen	-7447
▁markets	-7448
▁notwend	-7449
▁Identität	-7450
▁Verbindungen	-7451
30	-7452
do	-7453
iox	-7454
chem	-7455
▁Pra	-7456
▁bio	-7457
house	-7458
▁Band	-7459
▁Stär	-7460
▁seas	-7461
anging	-7462
umente	-7463
▁Babys	-7464
ächtnis	-7465
▁engage	-7466
▁lights	-7467
▁ändert	-7468
▁entlang	-7469
▁Verfügung	-7470
▁molecules	-7471
▁produziert	-7472
▁imagination	-7473
▁Geschwindigkeit	-7474
ico	-7475
berg	-7476
know	-7477
ulen	-7478
▁dom	-7479
▁saß	-7480
ugier	-7481
▁bloß	-7482
▁laut	-7483
▁trag	-7484
▁Micro	-7485
bedingt	-7486
▁Sozial	-7487
▁alleine	-7488
▁dagegen	-7489
▁Gesellschaften	-7490
Se	-7491
na	-7492
größ	-7493
load	-7494
tech	-7495
▁Frü	-7496
▁Iraq	-7497
▁bein	-7498
▁nütz	-7499
estens	-7500
formen	-7501
▁party	-7502
▁Spitze	-7503
▁active	-7504
▁einsch	-7505
▁infect	-7506
▁switch	-7507
▁buchstä	-7508
▁hearing	-7509
ification	-7510
▁erstellen	-7511
▁verdienen	-7512
bin	-7513
far	-7514
gas	-7515
uum	-7516
▁""	-7517
lied	-7518
tert	-7519
▁Zur	-7520
▁Holz	-7521
▁aufw	-7522
▁hero	-7523
▁Todes	-7524
▁davor	-7525
▁initi	-7526
▁Dienst	-7527
▁Kohlen	-7528
▁bitten	-7529
▁electr	-7530
▁sorgen	-7531
▁Schmerz	-7532
▁degrees	-7533
▁workers	-7534
▁benötigen	-7535
▁background	-7536
▁depression	-7537
▁Unterstützung	-7538
leun	-7539
fälle	-7540
hnten	-7541
▁Heil	-7542
▁King	-7543
gramme	-7544
▁smell	-7545
führung	-7546
▁Boston	-7547
▁Kunden	-7548
▁ganzes	-7549
▁victim	-7550
ribution	-7551
▁dritten	-7552
▁moments	-7553
▁größeren	-7554
▁Kilometer	-7555
▁landscape	-7556
▁entwickelten	-7557
änn	-7558
▁Les	-7559
ungsf	-7560
▁stim	-7561
stände	-7562
▁Osten	-7563
▁claim	-7564
▁trick	-7565
mission	-7566
▁Rücken	-7567
▁eating	-7568
▁klingt	-7569
▁inspired	-7570
▁efficient	-7571
▁entschied	-7572
▁sü	-7573
ober	-7574
stes	-7575
▁tap	-7576
entle	-7577
losen	-7578
▁Kore	-7579
▁More	-7580
▁core	-7581
▁frag	-7582
brauch	-7583
fassen	-7584
▁Massen	-7585
▁Satell	-7586
▁resist	-7587
▁handeln	-7588
▁husband	-7589
▁täglich	-7590
▁Professor	-7591
▁brilliant	-7592
▁commercial	-7593
▁verbreitet	-7594
▁beschreiben	-7595
▁Zusammenhang	-7596
An	-7597
het	-7598
rot	-7599
wahr	-7600
bruch	-7601
light	-7602
▁tele	-7603
ording	-7604
▁pleas	-7605
▁passed	-7606
▁Wahrneh	-7607
▁dorthin	-7608
▁forever	-7609
▁suffering	-7610
▁opportunities	-7611
oh	-7612
orgt	-7613
▁Sen	-7614
halte	-7615
ratic	-7616
▁Atom	-7617
▁Deut	-7618
▁bomb	-7619
▁spot	-7620
izität	-7621
▁Klima	-7622
▁Obama	-7623
▁Wikip	-7624
▁adapt	-7625
▁immun	-7626
▁nehme	-7627
▁sowie	-7628
▁Middle	-7629
▁aspect	-7630
▁Schwier	-7631
▁devices	-7632
▁regular	-7633
industrie	-7634
▁bringing	-7635
▁erwartet	-7636
▁spending	-7637
▁verursacht	-7638
▁importantly	-7639
▁Organisationen	-7640
bank	-7641
erem	-7642
üren	-7643
▁Rem	-7644
▁Sat	-7645
▁joy	-7646
▁zuk	-7647
ätsel	-7648
▁wire	-7649
▁accur	-7650
▁exerc	-7651
▁prior	-7652
▁Folgen	-7653
▁Diskuss	-7654
▁letztes	-7655
▁Großteil	-7656
▁entsteht	-7657
▁designers	-7658
bu	-7659
hö	-7660
ded	-7661
▁UN	-7662
igur	-7663
reci	-7664
ware	-7665
haben	-7666
▁Eins	-7667
afrika	-7668
▁Green	-7669
▁avoid	-7670
▁legen	-7671
▁Center	-7672
▁Online	-7673
▁Wandel	-7674
▁schaut	-7675
ognitive	-7676
▁Kontakt	-7677
▁Neuronen	-7678
▁Tradition	-7679
▁buchstäblich	-7680
6,	-7681
abt	-7682
ias	-7683
▁20.	-7684
▁Lab	-7685
aters	-7686
idden	-7687
idung	-7688
▁Loch	-7689
▁adop	-7690
▁bear	-7691
▁darf	-7692
rittel	-7693
▁Virus	-7694
▁lucky	-7695
▁shift	-7696
zubauen	-7697
▁Zentrum	-7698
▁Untersuch	-7699
▁gestalten	-7700
▁erforschen	-7701
col	-7702
ety	-7703
This	-7704
onie	-7705
rast	-7706
quenz	-7707
rauch	-7708
▁Müll	-7709
▁könnt	-7710
▁Thomas	-7711
▁failure	-7712
▁unbedingt	-7713
▁Bedingungen	-7714
▁investieren	-7715
▁consciousness	-7716
pra	-7717
uert	-7718
▁Zit	-7719
olden	-7720
volle	-7721
▁Sche	-7722
▁host	-7723
führer	-7724
imeter	-7725
▁coffe	-7726
steller	-7727
▁cooper	-7728
▁photos	-7729
istische	-7730
▁British	-7731
▁stecken	-7732
▁Phänomen	-7733
▁complexity	-7734
▁alternative	-7735
▁Zusammenarbeit	-7736
die	-7737
orb	-7738
swert	-7739
usive	-7740
▁Bett	-7741
▁Satz	-7742
▁Wass	-7743
▁seed	-7744
▁zent	-7745
uments	-7746
▁Anges	-7747
istence	-7748
▁streng	-7749
▁figured	-7750
▁Actually	-7751
▁distance	-7752
▁Wikipedia	-7753
▁Ausbildung	-7754
▁leadership	-7755
▁kommunizieren	-7756
Der	-7757
oom	-7758
▁EM	-7759
urop	-7760
▁GPS	-7761
verse	-7762
▁Abst	-7763
▁Glas	-7764
wirken	-7765
ördern	-7766
▁Stein	-7767
▁Typen	-7768
▁river	-7769
otograf	-7770
▁Bauern	-7771
▁deeply	-7772
▁gender	-7773
▁verfüg	-7774
▁Version	-7775
▁definit	-7776
▁turning	-7777
▁umgehen	-7778
▁zukünft	-7779
▁Sometimes	-7780
▁possibility	-7781
▁Entwicklungsl	-7782
2.	-7783
He	-7784
gin	-7785
▁27	-7786
cell	-7787
üben	-7788
▁Bal	-7789
▁Emp	-7790
▁Fach	-7791
▁auth	-7792
▁krit	-7793
▁faith	-7794
▁künst	-7795
▁batter	-7796
▁gewöhn	-7797
▁iPhone	-7798
▁verwir	-7799
▁kümmern	-7800
▁Aufgaben	-7801
▁Institutionen	-7802
eper	-7803
riage	-7804
right	-7805
▁Feld	-7806
▁boat	-7807
▁jung	-7808
antage	-7809
▁Liter	-7810
▁Stoff	-7811
▁names	-7812
▁weder	-7813
atively	-7814
▁raised	-7815
▁Drittel	-7816
▁However	-7817
▁Niemand	-7818
▁Problemen	-7819
▁beschäftigt	-7820
oge	-7821
izen	-7822
▁Pop	-7823
▁Sum	-7824
▁dou	-7825
asche	-7826
beweg	-7827
ekten	-7828
▁Jede	-7829
▁Last	-7830
▁vari	-7831
gebaut	-7832
▁disor	-7833
▁simpl	-7834
ivalent	-7835
▁Gefahr	-7836
▁Nichts	-7837
▁Norden	-7838
▁Thanks	-7839
▁master	-7840
▁parent	-7841
▁sister	-7842
▁Science	-7843
▁Sekunde	-7844
▁steigen	-7845
ständlich	-7846
▁Werkzeug	-7847
▁describe	-7848
▁deutlich	-7849
▁verkauft	-7850
▁weiteres	-7851
▁Gegenteil	-7852
▁conference	-7853
▁Großbritannien	-7854
aos	-7855
zif	-7856
▁af	-7857
hört	-7858
loss	-7859
osis	-7860
unte	-7861
ötet	-7862
markt	-7863
pping	-7864
ulous	-7865
▁Take	-7866
▁fash	-7867
▁note	-7868
kehren	-7869
▁1,000	-7870
▁Basis	-7871
▁Schle	-7872
▁cheap	-7873
▁neuer	-7874
▁truck	-7875
▁Zuerst	-7876
▁breast	-7877
▁coffee	-7878
▁physic	-7879
isierten	-7880
ikanische	-7881
▁erlauben	-7882
▁strategy	-7883
▁structures	-7884
▁Komplexität	-7885
val	-7886
▁gun	-7887
ckten	-7888
frist	-7889
▁Post	-7890
▁Sein	-7891
▁magn	-7892
▁mill	-7893
▁Mobil	-7894
▁Olymp	-7895
▁Ziele	-7896
▁stuck	-7897
▁erhält	-7898
▁meters	-7899
▁foreign	-7900
▁traffic	-7901
istischen	-7902
▁Insekten	-7903
▁controll	-7904
▁eingesch	-7905
▁Fernsehen	-7906
▁ecosystem	-7907
apie	-7908
eler	-7909
▁Aud	-7910
▁Bon	-7911
▁Ehe	-7912
▁Hig	-7913
▁Kop	-7914
itete	-7915
linge	-7916
ängst	-7917
▁Blog	-7918
▁Gest	-7919
▁Good	-7920
▁abzu	-7921
▁läch	-7922
▁repe	-7923
▁gebra	-7924
▁tolle	-7925
ography	-7926
ssystem	-7927
▁Result	-7928
▁leider	-7929
▁religi	-7930
ollywood	-7931
▁Führung	-7932
▁believed	-7933
▁benötigt	-7934
▁billions	-7935
▁dieselbe	-7936
▁erinnert	-7937
▁platform	-7938
▁previous	-7939
▁gegenseit	-7940
▁collective	-7941
That	-7942
stab	-7943
verb	-7944
▁Gar	-7945
▁Sun	-7946
▁kit	-7947
▁shr	-7948
zweif	-7949
▁Fest	-7950
▁Tanz	-7951
itness	-7952
▁helps	-7953
▁noise	-7954
▁French	-7955
▁Fällen	-7956
▁Wunsch	-7957
▁desert	-7958
▁kostet	-7959
▁origin	-7960
▁element	-7961
▁schafft	-7962
▁Experten	-7963
▁philosop	-7964
▁weiteren	-7965
▁begeistert	-7966
▁tremendous	-7967
▁überzeugen	-7968
▁öffentliche	-7969
nel	-7970
ruf	-7971
anst	-7972
▁dur	-7973
▁tit	-7974
▁wis	-7975
based	-7976
▁Bras	-7977
▁disk	-7978
▁sinn	-7979
▁wear	-7980
ategie	-7981
isible	-7982
klärung	-7983
▁Global	-7984
▁brings	-7985
▁dürfen	-7986
▁wächst	-7987
▁Objekte	-7988
▁virtual	-7989
forschung	-7990
▁bestimmen	-7991
▁creatures	-7992
▁Verhaltens	-7993
▁definition	-7994
▁veröffentlicht	-7995
▁Sa	-7996
▁eg	-7997
gern	-7998
vity	-7999
▁Pre	-8000
▁hau	-8001
etwas	-8002
zelle	-8003
▁Mach	-8004
▁ship	-8005
ancing	-8006
zeiten	-8007
▁	-8008
e	-8009
n	-8010
i	-8011
t	-8012
a	-8013
s	-8014
r	-8015
o	-8016
h	-8017
d	-8018
l	-8019
u	-8020
c	-8021
m	-8022
g	-8023
w	-8024
,	-8025
f	-8026
b	-8027
.	-8028
p	-8029
y	-8030
k	-8031
v	-8032
z	-8033
I	-8034
S	-8035
A	-8036
'	-8037
ü	-8038
W	-8039
ä	-8040
D	-8041
T	-8042
M	-8043
E	-8044
B	-8045
"	-8046
G	-8047
ö	-8048
L	-8049
0	-8050
K	-8051
F	-8052
P	-8053
j	-8054
U	-8055
-	-8056
H	-8057
N	-8058
x	-8059
?	-8060
:	-8061
R	-8062
—	-8063
V	-8064
C	-8065
ß	-8066
J	-8067
)	-8068
(	-8069
O	-8070
1	-8071
Z	-8072
2	-8073
q	-8074
Y	-8075
5	-8076
9	-8077
3	-8078
–	-8079
4	-8080
;	-8081
8	-8082
6	-8083
7	-8084
!	-8085
♫	-8086
Ü	-8087
Q	-8088
Ä	-8089
[	-8090
]	-8091
Ö	-8092
%	-8093
„	-8094
“	-8095
♪	-8096
’	-8097
/	-8098
X	-8099
&	-8100
é	-8101
$	-8102
»	-8103
«	-8104
”	-8105
á	-8106
í	-8107
=	-8108
#	-8109
+	-8110
_	-8111
‹	-8112
›	-8113
ó	-8114
‘	-8115
ç	-8116
β	-8117
°	-8118
è	-8119
ã	-8120
⁄	-8121
ñ	-8122
@	-8123
́	-8124
^	-8125
à	-8126
‟	-8127
‚	-8128
‒	-8129
€	-8130
ï	-8131
­	-8132
ê	-8133
ø	-8134
ù	-8135
ā	-8136
â	-8137
*	-8138
Ç	-8139
ô	-8140
ī	-8141
อ	-8142
	-8143
	-8144
	-8145
É	-8146
ë	-8147
Á	-8148
Å	-8149
ú	-8150
•	-8151
~	-8152
¡	-8153
£	-8154
¥	-8155
®	-8156
×	-8157
œ	-8158
ย	-8159
ร	-8160
่	-8161
©	-8162
¶	-8163
û	-8164
ý	-8165
ć	-8166
Č	-8167
ě	-8168
Ō	-8169
š	-8170
ū	-8171
प	-8172
म	-8173
र	-8174
े	-8175
्	-8176
你	-8177
葱	-8178
送	-8179
	-8180
	-8181
¿	-8182
ò	-8183
Ă	-8184
Œ	-8185
Ť	-8186
Ű	-8187
к	-8188
